// memory data file (do not edit the following line - required for mem load use)
// instance=/testfc/FCcmp/RAMNEORONS/Ram
// format=mti addressradix=h dataradix=h version=1.0 wordsperline=1
   0: 0c81XXXXXXXXXXXXXXXX
   1: 0007000000000001fc00
   2: ff02000102000101ff00
   3: ff020000020000020000
   4: ff030000ff000002fdfe
   5: 00ffff02000002020000
   6: 01000001ff00ff010000
   7: ff0601fe00000102ffff
   8: ff01010000fd00010000
   9: 01010003000002000000
   a: 0000000100ff0102ff00
   b: ffff00000000000000fe
   c: ff0300ff000003fffeff
   d: ff00fe0201ff000000fe
   e: ff00000000000100ff00
   f: 000303ff00000000fe00
  10: 0104ff0000010101fffe
  11: 0000000102fe00000001
  12: ff01fcff020000020000
  13: 0001fdff0100000001ff
  14: 0003020100000002fdff
  15: 00000002fffe0200fdfd
  16: 0001ff02000000000200
  17: ff0601000000ff00fc00
  18: ff00000000fc0100fd00
  19: 00000204feff0000ffff
  1a: fe00fd000300ff02fffe
  1b: 000000ff0301fe0000ff
  1c: 00020102fe000001ff00
  1d: fdfe0101000002fe00fd
  1e: feff000201ff00000200
  1f: 000301000200fe00ffff
  20: ff00020100ff0300fefe
  21: fffe010600fc00fefc00
  22: 0000fefe01feff01fdff
  23: fdfe00fe02fd00000001
  24: ff02010100ff00fffc00
  25: fdfb010100ff02ff00fd
  26: ff000004000000000000
  27: 0002010001000001fc00
  28: ff000400fffd00fefffe
  29: fd000305fffa0100fc00
  2a: 00fe00fd04fe0003fcfe
  2b: ff00feff01fd00fd0101
  2c: ff04000000ffff00fd00
  2d: fd0003fefe0003fd00fd
  2e: 00fe0101000004fffcfe
  2f: 0002000000000100fcfe
  30: fd02020200fe0001fcfe
  31: fcff0204fffb00fffdff
  32: ff0001ff06ffff02feff
  33: fe00000001fd02ff0101
  34: 0004010200fffe00fbff
  35: fe010300ff0002fefffd
  36: fd00000200ff03feffff
  37: 0103ff0100000401fd00
  38: fd010200fe01fe00fcfc
  39: fd000306fdfefdfffeff
  3a: fd0000fb04ffff02fbfe
  3b: fefefd010000fffe0100
  3c: 0104ff04fdfffe00fc00
  3d: ff0103fefe0000fd00fb
  3e: fcfe020300fd06fd00ff
  3f: 01010000ffff0300fc00
  40: 00060101fefffcfefafb
  41: ffff0506fcfdfc00fe00
  42: 0003fffa06fefe00fd00
  43: fffeff00000000020101
  44: 00020002ffffff00fdff
  45: 00040200fd0000fc00fc
  46: ffff0100feff04fc01fd
  47: 000200ff00ff0000fd01
  48: fd030104fd00fdfefbfa
  49: fe000306fbfdf90000fd
  4a: 000400fb04fefb00fd00
  4b: 00ffff00fd000201ff00
  4c: 00040305ffffff00fbff
  4d: 02030000fbfcfeff01fd
  4e: ff0200fdfefc05fcfefd
  4f: 0004010000000300faff
  50: 01030302fdfc0000fcfd
  51: 00000406fbfefaff01fd
  52: 000400fd0300fb01fd00
  53: 000000fffe0003020001
  54: ff030100feff0301fb00
  55: 00010302fbff00fd02fe
  56: fc030100fbfc09fd00fa
  57: ff03fffdff0007fffa00
  58: fc050102fffd00fffafd
  59: 00fd0303fafffafc05ff
  5a: 000300fe02fff901ff01
  5b: 0100ff00fe0004020001
  5c: 0005000000ff0200fb00
  5d: 00010403fbfffefe02fb
  5e: 0001ff00fefe05fdfffb
  5f: 0007fffc00010600fbff
  60: ff000001fffe02fffcfe
  61: fefb0403f900fafe04ff
  62: 01040000fffff8010001
  63: 010300fdfdff04010000
  64: fe0301ff02ff0200fc00
  65: 01010205fbfffffd00fb
  66: fd0300fefdfe08fa00fa
  67: fc06fffbfeff0501fcff
  68: ff010201feff0000fcfe
  69: fbfa0203f902feff04fd
  6a: 020203fffcfef8010102
  6b: 000200fbfc00030102ff
  6c: ff0400ff00000001fe00
  6d: 00ff0305fcfffefe02fc
  6e: fd0001fcfc0003fefefa
  6f: 0004fefc00010a00fb00
  70: fe030201fffe0000fefa
  71: 00fb0203f902feff05fd
  72: 02fe0000fefff7030001
  73: 000300f7fe0008ffff02
  74: 0003000000ff0001f900
  75: 01010206fc00fdff04fd
  76: ff0000fcfd0303fe01fa
  77: 000200fb01ff0800fbfd
  78: ff000100000000fffeff
  79: fffc0102fa0100fd05fd
  7a: 01000102fcfff9010002
  7b: ff00fef8000206ffff00
  7c: 000300ff00ffff00fc01
  7d: 01020102fffefefe02fb
  7e: fcfffffdff0502ff02fa
  7f: ff03fffd000305fffcff
  80: 00030100000000fefe00
  81: fefb0200f802fffe04ff
  82: 0300fe01fdfbfe000001
  83: ff03fcfb000404fefffe
  84: 000301ff02000001fe00
  85: 02000000fffd00fa01fc
  86: fd00fcfd000400ff02fb
  87: 0002fffb00050400fd00
  88: 01040000020002ff00fe
  89: fffe02fefd0300ff02fe
  8a: 0100fc00fffeff000001
  8b: 0002fafa02030400fdfd
  8c: 000300ff01000001fe01
  8d: 0102000000ff00fc00fe
  8e: fd0001fb000204fefffe
  8f: fd03fefb00040400feff
  90: 00020000000000000000
  91: fd0003fcfe03fffe0100
  92: 0304fe00fefefe000001
  93: 0000fbfe03040300fdfb
  94: 0002fdff00000000ffff
  95: 0002000000ff01fe00fc
  96: fd04fefeff0202fffefc
  97: ff00000001030300fb00
  98: 0000fe000100010000ff
  99: ff0002fbff03010000ff
  9a: 0301ff03ffff01ff0000
  9b: ff03fdfc05040001fefd
  9c: 02020200ff000002fc00
  9d: 000100fe020101fdfefd
  9e: ff0300ff00000300fefa
  9f: ff0400fe010003fffdff
  a0: 000101ff0100ff010001
  a1: ff0000fb010200ff0000
  a2: 0001000200000003ff00
  a3: fe01feff010001010100
  a4: 0003ff0201ff0004fd00
  a5: 0000fd0300fd0001fdfe
  a6: 020100000100000000fe
  a7: 00020100ff000000ff00
  a8: 00010000010001020001
  a9: 0000fe03010101000000
  aa: 0001fcff01ff0002ff00
  ab: 000000010000fe010000
  ac: 0003ff01ff000202fe00
  ad: 00ffff0202ff0001fffc
  ae: 00000002000002010001
  af: 0004000000000001fd01
  b0: 00010000000000000000
  b1: ff00000300fe0000fe00
  b2: 0000fb0002ffff04ff00
  b3: fffffe000100000001ff
  b4: fd02020000ff0001fe00
  b5: fefcfc0000000001fffd
  b6: ff01fe0300ff01000000
  b7: 00020000fffe0000ff00
  b8: fdff00ff00ff030100fd
  b9: 00ff000600fc0101fd00
  ba: fe00fe000301ff01fdfe
  bb: ff00ffff000000010002
  bc: 00010001ff00ff00fbfd
  bd: fdfcfd010100020000fe
  be: ff00ff0100fe01010000
  bf: 0103000100010101fe01
  c0: 0000fe0000010000fdfc
  c1: fcfe010500fd0001fefe
  c2: fdfefdfe0400fe03fefb
  c3: 00ff000000fc00000100
  c4: fd03020000feff04fbff
  c5: fefb03000000020000fd
  c6: ffffff0301fe01fffe00
  c7: fe020000ff000000fd00
  c8: fe00040101fe0001fffd
  c9: fcff020500fdff00fcfe
  ca: fefffdfe04fdfd03fdfe
  cb: 0000ff0200ff00ff0103
  cc: fe05020100000001fbff
  cd: 00fd01ffff0001fe01fe
  ce: fefe000400fb02fffeff
  cf: 00050000fe000100fe00
  d0: fc06040300fdff01fdfb
  d1: fefe0405fdfafc00fb00
  d2: fe0000000600fc01fcfe
  d3: 0000fe01000000ff0304
  d4: 0004010200000002fcff
  d5: fe0100000000000001fd
  d6: 00fe000600fc05fbffff
  d7: 0002000000010300fcff
  d8: fb03030301fffd00f9fa
  d9: feff0404fafdfafffe00
  da: fe00010008fffb01fdff
  db: 00feff03ff0001ff0000
  dc: ff050203ff00fc00f900
  dd: fe010000fffefffd02fe
  de: fcfe0102000002fc00ff
  df: 0003ffff000303feff00
  e0: fd050104ff00fc00f6f9
  e1: feff0304fcfdf90101fd
  e2: fe00000207fffc01fdfd
  e3: fffdff00000200ff01ff
  e4: ff050004fe00fffef8ff
  e5: ff040000fe00fe0001fd
  e6: ffff000000ff04fc00fe
  e7: ff040001000003fefc00
  e8: fd060206ff00fd00f8f9
  e9: 00fd0706f7fcf7000100
  ea: fd03ff0005fffb02fefd
  eb: ffffff0001020200ff00
  ec: fe03020400fffd01fb00
  ed: ff020102fd02000000fd
  ee: fd00ff0000fd04fe02fc
  ef: ff0300ff00000300fcff
  f0: ff02020400fefe00fbf9
  f1: fbfb0306f9fff9020300
  f2: ff01fe000400f9ff00fe
  f3: fffd01000001040000fe
  f4: ff02030300fffffdfbfd
  f5: 00020401fbfefd00fffb
  f6: fc00fffffefc04fd03fd
  f7: 010400feff010300fd00
  f8: fe010002fffcfd02f9f9
  f9: fdfc0205f6fdf90006fe
  fa: ff02000106fefb0100ff
  fb: feff00fd000304000000
  fc: fe04020000fe00fffcfd
  fd: 00ff0002fc00fd0000ff
  fe: fd0000fdfffe06fc00fb
  ff: 0006fffc00000afdfefe
 100: fe020201fffdfdfdfcf8
 101: fff90205f4fffc000700
 102: 0200000103fffa000001
 103: 0000fefb000404010000
 104: ff04010003fe0000fdff
 105: 01ff0105fc00fe0000ff
 106: fd00fffdff0107fc03fa
 107: fe0700fb01fe0800fdfd
 108: 0103010102fcfffefefb
 109: fef70304f404fdfc0601
 10a: 01fe00fe0000f9000300
 10b: ff00fdf7000103fffeff
 10c: ff0401ff020001fffdff
 10d: 03000206fb00fefe00ff
 10e: fd0000fcfd0307ff03f8
 10f: fd05fff801030800fdfa
 110: 0006030000fd00fefefa
 111: 00f90402f703fdfe0500
 112: 00fe00feff00fbfe0103
 113: ff04fdf6010407ff0000
 114: ff0501fe00fe0001fdfd
 115: 0402000200fd00fd02fe
 116: fe00fffdfe03030002fb
 117: 0005fef9000708fffafb
 118: fe0402fe01fe00fcfefd
 119: 00fc0100f803fd000502
 11a: 01fdff0000fff8020303
 11b: fd03fcf9020605fe0001
 11c: ff07050000000202fd00
 11d: 03000002ff00fefe00ff
 11e: f902fefe000502fb00fb
 11f: fc0300fa00040500fcfd
 120: fe03020200fcfefdfefc
 121: fff90300f705ffff0100
 122: 0000000200fefa000203
 123: fe04f9f8000502fe00fd
 124: 000603ff00000000fb00
 125: 01000002fffffffd0100
 126: fb00fefd000402fc03fd
 127: fd03fefb02070300fefe
 128: 0003010000ffff0000fe
 129: fefa01fcf606fefe0100
 12a: 02fffe02fefffcff0002
 12b: ff03fbf5030702fd00fb
 12c: ff0302ffff000101ff00
 12d: 0201000000fe00fd0000
 12e: fa01fcfd000303fe00fc
 12f: fd04fef900050200fcfe
 130: 0003000000ffff0000fd
 131: fffdfffbfd0500fe00fe
 132: 0302ff00fdfdfdff0000
 133: ff01f8f8030a00fdfef8
 134: 000202ff01fe01fffd00
 135: 010000ff000100fa00fc
 136: fd02fdfe000303fcfffc
 137: fd04fffb010502fffdfd
 138: 0001000000ff000000ff
 139: fdff00f7fe0800fe00fc
 13a: 0001fd00ff00fe0001ff
 13b: 0001f9fb050800ff00f9
 13c: ff02010000ff0002fd02
 13d: 00fffffb0502feff00fa
 13e: fe0000fc010201fffff9
 13f: fe01fdfe000203ff00fe
 140: 0102ff00010000010000
 141: fefefff70107020000fc
 142: 0002ff000100ff02fd00
 143: 0000ffffff0102ff00ff
 144: ff02000000000202fdfe
 145: ff00ff0001ffff01fdfe
 146: 0100ff0100000100ff01
 147: 00040300000000fffdff
 148: ff01010000ff0000fd00
 149: fe00fd0400fe0200fe00
 14a: 0001fd0001ff0005fe00
 14b: 0000ff01010000ff0000
 14c: 0002000001000002fd00
 14d: fdfd00000100fe0100ff
 14e: 0000fe02000001ff0000
 14f: 0004010001000100fd00
 150: fffffefe00010001fd00
 151: fe00ff0300fdfe02fc00
 152: 0002fd0003ffff01fafc
 153: 00ff0003ffff00fdfeff
 154: 0002010000010102fcff
 155: fefc00000202ff00feff
 156: 0000000300ff000200ff
 157: 01030202fffe00fefe00
 158: feff010302030201fdfb
 159: ff00ff04ffff0005fcfe
 15a: fd00000002010002fdff
 15b: 00000003fe0000fd0001
 15c: ff02030000ff0002ffff
 15d: fefc0201020200000100
 15e: fdfeff0300fe0001ff00
 15f: 0004000200000000fd00
 160: fdff000201000000fefb
 161: fdfe0105fffbfe03fdfd
 162: fffefe000400ff03fbfd
 163: 00000003fffd00fe0001
 164: fd01030202fdfe02fcfd
 165: fefe03ff00fe000102ff
 166: feffff0202fd03010000
 167: ff0301fe00fe00fefd00
 168: fe00020201feff00fefb
 169: fbfc0606fdfdfb0200fd
 16a: 00fd00010501fa02fcfe
 16b: 01feff03fffc00000105
 16c: fe04020100fefe01fefe
 16d: 00fe02ff01ff01010000
 16e: fefc000000fe03ff0002
 16f: fd04000000ff0100fa00
 170: fe00030102fcff01fcfb
 171: fcfd0704fcfbfa0000ff
 172: 00fe010005fdfc02f9fd
 173: 01ffff02fffffffd0103
 174: ff0801030001fb00fbfb
 175: fffe00ff00ff000101ff
 176: 00fb010003ff01fe02ff
 177: fe0400fe000102fefc00
 178: fc0205020100fc03fcf7
 179: fcfe0506f9fcf8010100
 17a: fffcff0104fffa02fcfe
 17b: 00fd0003fefe00fe0202
 17c: 000402040000ff00fafd
 17d: 000000ffff00ff000000
 17e: fffcffff020001ff05ff
 17f: 0001010001ff01fcfbff
 180: ff0403050000fd01f9f6
 181: fdfc0205f8fcf8020002
 182: 00fd000304fef704fbfe
 183: 00fb01020002ff000403
 184: fb0602050100fdfff9fb
 185: 00000201fc00000001ff
 186: fefe00ff020002fd0200
 187: 000500ffff020200fafe
 188: ff0601070100fdfefbf6
 189: fbfb0306f6fef8030303
 18a: fc00000304fdfb03fcff
 18b: fefd00040200fefd0300
 18c: fd05010303fefdfff8fd
 18d: 01010002fc00000101fe
 18e: fdfd00fe050005fe04fe
 18f: 0002000000000300fdff
 190: 000503040300fbfff9f7
 191: fdf90206f4fff8020205
 192: 0002fe0403fef800ff00
 193: fefaff00010000000000
 194: fe05030100fffffffbfd
 195: 0100ff01fcffff0000fe
 196: fdfefe00000005fc0400
 197: fd0200fc050106fffffd
 198: ff06040401f9fbfefaf7
 199: fcf60005f3fff8020408
 19a: 00ff000105fff9000000
 19b: fcfdfeff000004ff0400
 19c: fc0402fe02ffff00fdfc
 19d: 03020201fdfffd010000
 19e: fefdfafe000006fc0100
 19f: fd0400fe030005fefffb
 1a0: 0004030005fcfcfcfef7
 1a1: fef60203f603fd000306
 1a2: 00feff000000f8000102
 1a3: fdfefef9010201fe0301
 1a4: fe03020103fe00fefbfc
 1a5: 02020201fd00fe000000
 1a6: 0000fcfe010105fd01ff
 1a7: fe0200f9020108fefefc
 1a8: ff06020004fdfdf6fff7
 1a9: fef70203f504fcfd0406
 1aa: ffffff0000fff7ff0004
 1ab: fc0000fb000504fe0001
 1ac: ff0501fe030000fcfefe
 1ad: 02000202ff00fd000000
 1ae: fe00fffefe0204ff01ff
 1af: fe03fdfa010208fcfffc
 1b0: fe0500ff05fbfdf700fa
 1b1: 00f50403f403fefe0106
 1b2: 01fb02fdfe00f6000005
 1b3: fc01fef9000701ff0200
 1b4: fc0602fd0200fffdfdfe
 1b5: 03010103fefffe000102
 1b6: fd0000feff0602fe0000
 1b7: fd03fcfb000505ff00fb
 1b8: 000303ff03fbfef900fb
 1b9: fff6ff00f504fdfe0006
 1ba: 02fe00fdfd00f7ff0305
 1bb: fb01fcf9010b04fe00fe
 1bc: ff0502ff00feffffffff
 1bd: 0200fe0300fd00ff0001
 1be: fb00fdfe000502ff0100
 1bf: fb03fdfb010504fdfefb
 1c0: 0004010103fafbf700fe
 1c1: 03f902fff504feff0002
 1c2: 02fcfffffd00f9010004
 1c3: fa05faf9030702fc00fd
 1c4: fe040200000100fefffe
 1c5: 0101000200fefcfd0301
 1c6: f9fffcfd000501fd01fc
 1c7: f806fbfc020605ff00fd
 1c8: 0004000006fdfdfdfefc
 1c9: 01f900fef80300ff0003
 1ca: 02fdfefffc00fbff0004
 1cb: fc01faf8050a01fc00fc
 1cc: 0006020001000202fe00
 1cd: 0203fe000000fdfd00ff
 1ce: fc01f9ff000602fdfffd
 1cf: fc03fdf901040500feff
 1d0: 000302fd02fdfdfefefd
 1d1: 01f9fffaf90400fc0000
 1d2: 01feff03fd00fd000205
 1d3: fb02f9f9030b01fe00f9
 1d4: 000301000000ff00fdff
 1d5: 0200fe020000fefdfefe
 1d6: fc03fcfe000303fffffe
 1d7: fc03fdfb010402fffefe
 1d8: 0000000101fefc0000fd
 1d9: 03fc00f8fc0800ff0000
 1da: 0200fc00fdfffdfd0200
 1db: fe00fbfa050801ff00f8
 1dc: ff030201ff0000ffff02
 1dd: 02fffffd0303feff00fa
 1de: fc01fbfd010104fc00fb
 1df: fd06ff01020103ffffff
 1e0: 000400000000fe0001ff
 1e1: 00fe00f7010800fffffe
 1e2: 0002fd0000fd0005feff
 1e3: 0102fe0100ff00010001
 1e4: 0004000100000002feff
 1e5: fffeff0000fefe010000
 1e6: 020000020001000200fe
 1e7: ff040002ff000100fd00
 1e8: fefffe0001000001fdff
 1e9: ff00000301feff0200fd
 1ea: 0201fd0003fdff04fd00
 1eb: 0101fe01000001000200
 1ec: ff0300fffdfe0000fe00
 1ed: fdfdffff0001000300fd
 1ee: 00ffff0001ffff000000
 1ef: ff04000000ff0100fe00
 1f0: ff00fd0000010000fefb
 1f1: ffff0104fe000004fefd
 1f2: 0000fb0301fc0007fc00
 1f3: 00fffe0300fefe000202
 1f4: fd0300000001ff02fc00
 1f5: fefcfc0000000002fe00
 1f6: fe01ff0002fc0000ff00
 1f7: 0006010000000000feff
 1f8: feffff0201000002fdfd
 1f9: fcfc0005fffbff07fbfb
 1fa: fe00fe0002ffff05fcfd
 1fb: 02fdfe04fefe00fe0100
 1fc: ff0301000000fd04fefd
 1fd: fffbfe00020302000000
 1fe: ff00000001fc0201ff00
 1ff: 0005000000000001fd00
 200: 00fe010003000003fef9
 201: fffa0105fdfffb04fffc
 202: fefdff0205fefd04fcfb
 203: 01fe0004fdfd00ff0100
 204: fe03030002ff0002fefe
 205: 00fb00fe040100000200
 206: fffd020002fc000000ff
 207: ff05020000ffff02fd00
 208: fd00010003fffe0500fc
 209: fbf90705fdfcfb04fffe
 20a: 00fcfd000300fd04fbf9
 20b: 04fe0005fcfb00000003
 20c: fd05010202fcfc05fdf9
 20d: 01fe0001020000010100
 20e: fffc000002fd02fd0100
 20f: 00040000000000fffbff
 210: fc00010004fdfd02fff8
 211: fcfc0305fafdf903fe00
 212: fffdfd0405fef704fbfb
 213: 01fcff02fcfdfe000004
 214: fd04010700fefe04fbfb
 215: ff000000020000010500
 216: fffc010102ff00fd0100
 217: 0004ffff01fd0002feff
 218: fa04020203fcfb05fcf6
 219: fdfd0104fbfef8050001
 21a: fefdfe010400f803fbfe
 21b: 00f9000000fbfd000503
 21c: fc0800060301fd03f8fa
 21d: 00000000ff00000000ff
 21e: fffa00ff020000fd0001
 21f: 000300000100fe00fefe
 220: fd0401060100fd04fbf5
 221: fdfb0107f7fff5030103
 222: 00fbff0304fdf302fcfd
 223: 00faff0400fffcff0301
 224: 0007020301fffd01fafb
 225: 000000ff0000ff0003fe
 226: fdf800fe040001fe0203
 227: ff03fe0101ff0000fbfe
 228: fe05010503fffd02f8f3
 229: fdfa0206f4fef9040304
 22a: fb00fe050300f60400fc
 22b: fdfafe030000feff0400
 22c: fd0402020100fc00fbfc
 22d: 00fe00010001ff0100ff
 22e: fdfbff00030003000500
 22f: fe01010101fe0100fcfe
 230: fd00020205fffcfefbfa
 231: fef90103f3fef9030404
 232: ff00010403fef20300ff
 233: fef9fc030001fffe0002
 234: fc06030304fefefffcfc
 235: 020000020000ff03ff00
 236: fefcfd000201040002fe
 237: fe01fffe02ff06fefdfe
 238: 0001040006fcfdfcfdfa
 239: fdf70004f200fc040306
 23a: fe00ff0303fef2030000
 23b: fdfafc01ff0205ff0003
 23c: fd0503000400fefdf9fd
 23d: 02fe0000fe00fd0000ff
 23e: fffbfbfe040104000201
 23f: fe0000fb04ff08fefcfe
 240: ff03030009fafcf9fef7
 241: 00f40003f102fd020407
 242: fffd0000fe00f5fe0103
 243: fef9fffe000102fd0103
 244: ff0802fd03fffefefbfe
 245: 010001020001fd010100
 246: fefdffff030103ff01ff
 247: 0002fdfa020309fefbfc
 248: ff0605ff08fafaf8fef7
 249: fff50002ef02fe040404
 24a: 00fb0000ff01f4fe0005
 24b: fafffffd00050500fd01
 24c: fd0404ff040000fdfcff
 24d: 00020101ff00fc020100
 24e: fdfffffd010102fe0401
 24f: fd02fcf9020509fef9fd
 250: 000302fe04f7fef800fc
 251: 00f50102f403fd050204
 252: fffdfffefe04f6000105
 253: f9fffbfc00060400ff01
 254: ff0202fc05ff00fefd00
 255: 01ffff02ff00fe000202
 256: fc0001fe0303030001fd
 257: fb03fcfd030406fffcfc
 258: 000204fd05fbfdf7fffc
 259: fff80202f306fc010205
 25a: 01fd01fbfe03f6020003
 25b: fafffdfb040a03fffffd
 25c: 010303fd0000ff000000
 25d: 0101000101fdff00fe00
 25e: fd00fdfc0103010101fd
 25f: fc04fcfa04080400fdfc
 260: 030303ff03fafbfb00ff
 261: 00f70301f6060000ff03
 262: 01fbfdfdfd01f6000104
 263: fb02fcfa0208020002f8
 264: 000403fe0000ff0000ff
 265: 0302000100fffcffff01
 266: fe02fcfeff020000fefd
 267: f705fdfe030505fffffd
 268: 0201000005f8fafc00ff
 269: 00f903fff70700ff0000
 26a: 0200fffefc01fb030101
 26b: fc02f8fa0408030101f9
 26c: fe02020000000000fd00
 26d: 0300010200fffc0000ff
 26e: fb00fcff02030100fffe
 26f: fc04fbfd0105060000fe
 270: 0300000004fafbfe00fe
 271: 02fa01fcfa0600ff0000
 272: 00ffff00fd00fb000200
 273: fe02f9fc060a000002f7
 274: 000302fe0001ff01fdff
 275: 01fefe020102fafefefe
 276: fd01fcfe010000fffefd
 277: fc02fdfe0202060000fe
 278: 020000ff04fbfdff02fe
 279: 00fdfcfafe0600ffff00
 27a: 00fffeffff00fa010200
 27b: fc00fbfd0608010000f9
 27c: ff040100ffff0100ff02
 27d: 02fffffd0102fdfe00fb
 27e: fe01fd00040202fffefd
 27f: fd01ff0003ff05000000
 280: 020000fe02fdfd000000
 281: fffbfff6020a01fefffb
 282: 0003fe0000fe0102fd00
 283: 000000000000ff000000
 284: 000301ff00000101fefd
 285: fffeff000000ff0201fe
 286: 00000001ffff00000000
 287: 02030000ff010000fdfe
 288: ff0000ff00000104fffd
 289: 00ff0001ff00fd02fefe
 28a: 0001fd0101fcff04fafe
 28b: 0200000000feff010302
 28c: 000501010002000200fe
 28d: fefc0000feffff0100ff
 28e: 0000030001000000ff00
 28f: 00020000fe00ff00fe00
 290: feff00fd00010000fffe
 291: fefd0201fdfdfd02fcfb
 292: 0000fe0001fd0106fcfe
 293: 01ff0002fcffff000000
 294: 0003ff0000ff0001fefe
 295: fffcff00000100000000
 296: ffff030001fcff000000
 297: 00000001ff000001fe00
 298: fdfd00010102fd03fdfd
 299: fdfd0403fcfefe03fffd
 29a: 0000fc0103ffff04fefb
 29b: 00fe0401fefbff01ff01
 29c: 000200020000ff03fcfd
 29d: 00fc00fe000001000100
 29e: fdfd03ff000000000000
 29f: 0005040000fd0002fcfe
 2a0: fefa00010100ff0300fc
 2a1: fcfa0202fdfffd0500fd
 2a2: 0000fe0200fdfd08fcfa
 2a3: 03ff0001fdfcfeff0100
 2a4: fc03010201fdfd05fefa
 2a5: 02f800ffff0101000001
 2a6: fefe010001fd01ff0002
 2a7: 0004010002fd000000ff
 2a8: fffd00ff00feff04fffa
 2a9: fefb0405fcfefb04fffe
 2aa: fffffe0205fdf908fcf9
 2ab: 00fe0102fef8fe000103
 2ac: fd02000002fdfe06fef9
 2ad: 02fd00fd00ff00ff0100
 2ae: fffa0000fffe02fd0101
 2af: ff03040000fd0000fdff
 2b0: fc00000003fffd0800f8
 2b1: 00fd0306f8fdf806fe02
 2b2: feffff0005fef706fff6
 2b3: 02fa0104fffcfd000103
 2b4: fd04000100fdfd06fdf7
 2b5: 01fe00feff0000000200
 2b6: fffaff00020000ff0103
 2b7: fe0301fd00fe0000fcff
 2b8: fb01020103fffe0400f4
 2b9: fdfd0405f7fbf8040000
 2ba: fdfdfdff0300f507fffb
 2bb: fdf8000300fbfe010107
 2bc: fd06030003fefb04fafa
 2bd: 00ff00ff0001000200fd
 2be: fff8fe01000000fd0007
 2bf: ff03000003fb0100fcff
 2c0: fe0201010300fc04fdf4
 2c1: fefc0008f6fdfb030104
 2c2: fbfcff0004ffee0700fb
 2c3: 00f8fc01ff00ff010005
 2c4: fc05030003feff02faf8
 2c5: 00ff01fffe0002010100
 2c6: fefb00fe010000fd0302
 2c7: fe02020003000400fcff
 2c8: fe04010405fdfb02fcf5
 2c9: fcf8fe06f400f9050103
 2ca: fbfeff000100f00501fd
 2cb: fcf6fc01fffffe020006
 2cc: ff03030003fdfc00f9fb
 2cd: 00010000000000000100
 2ce: fef8fffe04ff02fd0203
 2cf: ff01ff0004fe04fefcff
 2d0: ff00020206fefafcfff8
 2d1: fdf80007f101fc020504
 2d2: fc0000010101f007ff00
 2d3: fff8fc04fe0103010006
 2d4: ff0204ff04fffe00f9fc
 2d5: 0200fe01fd01fe000101
 2d6: 00fafcff030206000201
 2d7: 000000fb07fe05fcfb00
 2d8: 00ff030009fefcfffdf9
 2d9: fff50106f200fd040105
 2da: fcfefe030002f5000102
 2db: fdfbfc02000204fefd03
 2dc: 020803ff02fd0000fafd
 2dd: 00000000fe0000000001
 2de: fffbfeff040004000101
 2df: 000000fd050207fef900
 2e0: 0102030009fafbfafefc
 2e1: fef30103f303ff040303
 2e2: 00fdfe01fd04f3010102
 2e3: fefcfc0101030300fc05
 2e4: 000805fc02fc00fff9fd
 2e5: 000000040000fe02ff02
 2e6: fffe00ff030004000300
 2e7: 0000fefb040006fefafe
 2e8: 0105030009fbfbf8fdfb
 2e9: fef40101f204ff020502
 2ea: 00fd00fffe03f7fd0309
 2eb: fdfcfcff000205fffd04
 2ec: 000501fb05fdfffefafe
 2ed: 01ff00010200fd000100
 2ee: feff0000030102000000
 2ef: fd01fdf8040205fefdfe
 2f0: 010203fe05f8fcfa00fe
 2f1: 00f5ff00f10700030403
 2f2: fffafffdfa05f6010004
 2f3: f9fefc00010305020001
 2f4: 000305fa03fffdfffd00
 2f5: 0300010100fefe010100
 2f6: fefeff000303030100fe
 2f7: fb0200fc020204fffdff
 2f8: 040105fd07f7f9f7feff
 2f9: 02f602fef30600010105
 2fa: 00f8fffdfc06f8010002
 2fb: f900fdfc0006010401fd
 2fc: 000204faff00fefffe01
 2fd: 02ff000101fefb030101
 2fe: fc00fe000301020200fe
 2ff: fa03fdfc0203050100fd
 300: 040202fb05f8fbf70001
 301: 03f901fef304ff000204
 302: 02f8fdfdfb06fd020001
 303: fa00fcfc0304020202fb
 304: 030301fe00fffefffe02
 305: 03ffff0101fdfb000200
 306: fdfffb0003ff0201fffe
 307: fc04fbff03010401fcfc
 308: 0401030003f7fafc0000
 309: 01fcfffcf608fefd0002
 30a: 01fbfcfefe03fc020101
 30b: fb00fafb0408050200f8
 30c: 020300fd0001fe02fbff
 30d: 03fe00020100fb0001ff
 30e: fefffc0004020000fffd
 30f: fb04fcfc04010502fefc
 310: 0300ff0005f9fafe00ff
 311: 01fbfdfdfa08fffe0000
 312: 00fafefefb04fe020102
 313: fe01f9fc0504010000f9
 314: 000203ff00ff0002feff
 315: 02fefe000301fc00fffe
 316: ff00fe000200010001fe
 317: fd04fd0000010500fdfd
 318: 050100fe02fafc0100fd
 319: 00fcfdfaff0b00fc00fe
 31a: 01fdfcfefd04fd030300
 31b: fb00fbfd040aff0003f9
 31c: 00010202fffe0101fe02
 31d: 0500fbfe0302f70000fc
 31e: fc00fc01040200ff00fb
 31f: fc0500ff01000500fffe
 320: 0401000104fdfe01feff
 321: 01fbfaf8000cfefe00fa
 322: 000100ff00fe0002fe00
 323: 0200fe0000fd0001ff00
 324: ff010300000100ffffff
 325: 00fd01ff00ffff02ff00
 326: 0100000000ff02020000
 327: 01030000ff000102fe00
 328: feff0000ff00000100fe
 329: fdfc0100ffffff02fefd
 32a: 0001fe0201fc0005fdff
 32b: 00000000fffcfe0100ff
 32c: fd0301ff0102000200fd
 32d: 01fdff00feff00ff0001
 32e: 0000000001000001ff00
 32f: 0105010002feff01fd00
 330: fefe00ff0001000002fe
 331: fdfe0303fffdff02fffc
 332: 00fffc0000fdff06fafc
 333: 020001fffffcff02ff00
 334: fd020100fe01ff02fffd
 335: fefbfefc020000ff0301
 336: fe00010100fe0002fffe
 337: 0004020000000000feff
 338: fefd01000001ff0100fc
 339: fefb0402fd00fd03fefc
 33a: ff00fe0103fc000afefa
 33b: 01fe02fffffb0004fffd
 33c: ff00040100ffff03fefe
 33d: 00f9fffb000100ff0100
 33e: ff00010000fc00000002
 33f: 010403ff00ff0002fc01
 340: fdfc00000200000300fb
 341: fbfc0405fbfbfc06fefd
 342: fffffdff05fefd0dfff8
 343: 00000402fef9ff030001
 344: fe03010001fefe03fefc
 345: 01faffff0000ff000200
 346: fffd000000fd00fe0003
 347: fd04050100fd0000fc00
 348: fffd020002ffff01fffd
 349: fefb0306f900fb0400fd
 34a: 0001fdff00fffb0bfdf5
 34b: 02fd010500fa00040000
 34c: fd0201ff03fdfc04fefc
 34d: 03fefffdff0100010101
 34e: fffb000101fd01fd0001
 34f: fd06030101fe00fffc00
 350: faff00fe0300ff0401f9
 351: fdfc0306f9fef80201ff
 352: ff00fdff0500fa0afff6
 353: fffcff0200fbfd010103
 354: fb050400fffefc0100fb
 355: 00fdffff010201000400
 356: 00f7fd0202ff02fc0003
 357: fe03020201fb0200fc00
 358: fc0003fe02fffe0202f8
 359: fdfd0307f7fdfa030002
 35a: fdfffcfe0300f40b01f7
 35b: 00f9fd0400fd00000004
 35c: fa03030000fefa02fefb
 35d: 0200fe00000000000102
 35e: 00fafc03030100fcff03
 35f: 0000ff0003fc0101fd00
 360: fb0200000101fb02fff9
 361: fefd0106f7fffa020003
 362: fe00fefd02ffef0a01f8
 363: fefafe0401fbff020003
 364: fa02040003fffdfefef8
 365: 00fefeffff01fe020102
 366: 00faff0102ff03fd0202
 367: 0000000203fc0100fc01
 368: fe0000020501fc01fef9
 369: fdf90305f200fb050004
 36a: fbfefefc00fff20a03fb
 36b: fffafb0201000100fe06
 36c: fe0202fe05000000fafa
 36d: 01000000ff02fd000003
 36e: fff8ff00020001fd0103
 36f: ffff000005fe05fff9fd
 370: fe00000004fefcfb00fc
 371: fdf90308f500fd030105
 372: fbfcfcff00fff5070400
 373: fef9fa0400000403fc02
 374: ff0303fb040100fffcfb
 375: 0000fd010000ff010002
 376: fff9ffff050004ff0002
 377: 0000feff02ff0600fafe
 378: 00ff02fc06fffcfbfffe
 379: fff50005f300fe030207
 37a: fdfcfefefb01f6030303
 37b: 00fafc03000006fffe01
 37c: 020302fd05ff0000fefb
 37d: 000000030000fe010003
 37e: 00fbfd0103ff03ff0003
 37f: 01fffeff04ff0600f9fe
 380: 020003fb07fbfdf900fd
 381: fff60302f400fe010303
 382: fffe01fefb04f7010003
 383: fffefc0500020703fe01
 384: 020803f803ff00fffffa
 385: 0001000300fefc00fe01
 386: fefc0001030002fc0102
 387: 0401fefd06ff0600fafd
 388: 030203fb06fbfcfd00fd
 389: fff60102f403fe000301
 38a: fefefefdfc05fa000005
 38b: fbfeff0101020501fe00
 38c: 040601fa04fe00fefcfa
 38d: 0000ff0201ffff000002
 38e: 00fefe0003fd03fe0100
 38f: fd00fffd04ff03fdfafe
 390: 020101fc05f7fafc01fe
 391: 00f70100f406ffff0202
 392: 00fbfefefb07fa02ff05
 393: fafffffe0202080000ff
 394: 040507f804fefefcfd00
 395: 0201010601fefd0102fe
 396: fd00ff0505ff00fd00ff
 397: fd0200fb040007fcfffe
 398: 06ff05fd07f7faf90100
 399: 00f60000f60700ff0102
 39a: 00f9fdfcf906ff000002
 39b: fb01fcfe0301030101fc
 39c: 010404fb00ff00fbfdff
 39d: 01fe000201fdfb020000
 39e: fbfdfe0304ff0001ff00
 39f: fd03fefe00000800fefa
 3a0: 060004fb05f4f8fb0201
 3a1: 00fb00fff50900fd0200
 3a2: 02f6fcfdfd04ff01ff02
 3a3: fcfefdfe0304020501fb
 3a4: 020401ff02fe00fffdfe
 3a5: 02feff0000fefb020100
 3a6: fc00fd0206fefe0001fe
 3a7: fd00fe0002010302fffb
 3a8: 06fe03fe03f3f9fa0000
 3a9: 00f9fcfcf80700fe0400
 3aa: 02f7fbfcfc0301030001
 3ab: ffffffff0401020202fb
 3ac: 060300fd00000000fd02
 3ad: 020000010301fa0001ff
 3ae: fd01ff030300fc0301fd
 3af: f903fc0004fe0600fefb
 3b0: 0700010002f7fbfc00ff
 3b1: 02fbfefff907fefd01ff
 3b2: 00f9fafefb0201030002
 3b3: fc00fcfb0306000300fb
 3b4: 010302fffffdfd01fb00
 3b5: 03fefd000301fa0001fd
 3b6: fc01000200ffff0502fc
 3b7: f903000004ff030000ff
 3b8: 0500fffd02f9fbfd00fe
 3b9: 01fdfbfcfe0a00ff01fe
 3ba: 00fcfcfdfb0201020102
 3bb: fd01fbfb0106ff0002fc
 3bc: 0203010000fd0000fd00
 3bd: 02feff000008f90001fb
 3be: fd01fd010203fc0003fc
 3bf: fb03ff0000fe030000fe
 3c0: 0601ff0000fcfe010100
 3c1: 00fef9faff0ffffc00fc
 3c2: 0101fffffffe0002ff00
 3c3: 02010000ffff01ff0000
 3c4: 000402ff00fffe0001ff
 3c5: fe00fffefdfe00000001
 3c6: 0100ff0200fd00020200
 3c7: 01020000fe000002feff
 3c8: fe0001000000010002ff
 3c9: feff0102fefbff0000fe
 3ca: 01020001fefd010700fe
 3cb: 000000fffefdfe0100fe
 3cc: fd0300fefe02fe0000ff
 3cd: 00fcfdfe010101000203
 3ce: 0000030000fcff03fefe
 3cf: 01040300ffff0001fcff
 3d0: fffe00fd0003000003fd
 3d1: fcfd0202fffffe0201fd
 3d2: 0000ff01fffd0006fefb
 3d3: 02000400fdfc00030000
 3d4: 000203000000ffff00fc
 3d5: 01fafdfc000201010302
 3d6: fdff0300fefc0000ff00
 3d7: ff040300fdffff00fcff
 3d8: fefd00fd0003000001fc
 3d9: fefd0302fcfcfd0200fe
 3da: fe00000001fc0007fff7
 3db: 00ff0102fefbfe01ff00
 3dc: fd00050000fffd0100fd
 3dd: 01fcfcfd020101ff0102
 3de: 00fd020000fc00fdfe02
 3df: fe04020000fd0001fd00
 3e0: fffdff000200000103fe
 3e1: fefd0401fdfdfd0200fd
 3e2: fd01fefe03fbff07fffa
 3e3: ffff0104fbf8ff01fe01
 3e4: fe050200ff00ff03fefd
 3e5: 05fdfdfe020001ff0402
 3e6: 01fe000000ff01fe02ff
 3e7: ff040100fffd00fffc01
 3e8: 00fd03fd0300000101fb
 3e9: fffd0504fefdfa0301fb
 3ea: fd01fefefffefd09fff9
 3eb: 00fc000500fbfe020102
 3ec: fe0500fe00fffc0000fc
 3ed: 02fefafd000401000002
 3ee: 02fc000100fe00fbff01
 3ef: 0004040201fe0001fbfd
 3f0: 00fdffff02ffff0001fe
 3f1: ffff0504fb00f903ffff
 3f2: fefffafc00fef90903fc
 3f3: 01fdff0400f9ff00ff02
 3f4: fb0204ff0000ff0000fa
 3f5: 02fefbfdfe0203000101
 3f6: 00fdff0203fd00fd0003
 3f7: fe04000400fc0100fc01
 3f8: fa0200fe0400fffe05fc
 3f9: fdfe0303fafff8040001
 3fa: fbfffefc02fef50605fd
 3fb: 00f9fd0802fdfffffe04
 3fc: fa0202000000fc0000fc
 3fd: 0200fdffff00fd0000ff
 3fe: 01fcffff030001fdfe05
 3ff: 0100fe0301fc00fdfa00
 400: fa02fffe0200fbff04fe
 401: fdff0207f9fcf7020003
 402: fcfdfbf80200f60607fd
 403: fdfafd0600ff00fe0007
 404: fc0103000200fa0001fa
 405: 0100fcff000200000001
 406: 00fafe00030003fdff03
 407: 0001010304fc04fffdff
 408: fd0000fe0303fcf901fd
 409: fffd0007f800f9010005
 40a: f9fdfdf701fff4050800
 40b: fffafe0300010300fe04
 40c: 000300000101fe00fffc
 40d: 0201fe010102fe00ff04
 40e: 00f7fffe050004fd0102
 40f: 0000000106fe0402fbfd
 410: 000001fe01fffaf90300
 411: fdf80105f4fdfa010005
 412: fbfc00f7ff07f5020700
 413: fcfafe04ffff0500fd02
 414: ff0104fc0300fe0000fb
 415: 0200fe00ff00ff03fe03
 416: fffafe0003fe01fe0103
 417: 00fb030005000400fafe
 418: 00ff01fc0600f8fc00fe
 419: fef80205f400fc000103
 41a: f9ff00f7fa05fb0204ff
 41b: fefcfd0303ff06fcfd00
 41c: 010404fb03fffffffcfb
 41d: 0001ff03ff00ff01fe01
 41e: 00faff0306fd01fe0003
 41f: 03fe00fe07fc05fef7fe
 420: 020004fb05fcfbfc03fd
 421: fef80203f70200000002
 422: fbfe00faf907fd01fe04
 423: fcfeff05020002fefe01
 424: 040403f903ff0000ffff
 425: 000100030000fd01ff00
 426: fffdfe0401fe00ff02ff
 427: 000002ff05ff06fdf9ff
 428: 040004fa05f9fbff00fd
 429: fef80002f605fe020001
 42a: fcfe00fcf908ff00fb02
 42b: fdfd0000010006fd0201
 42c: 030503f80100feff00fb
 42d: 0001ff0302fffb01ff00
 42e: fdfe000103fb00fe00ff
 42f: ff0001fd02fc08fcfdfe
 430: 050004f806faf6fc00fd
 431: fffafe00f60900000000
 432: fdfdfefcf90600fffc04
 433: fa0000ff010105000201
 434: 050300fa00fefdfdfbfe
 435: 0100030000fcff0301ff
 436: fefd010503fd00ff0200
 437: ff000000030004fafffe
 438: 06ff02fb06f7f9fe0000
 439: 01f9fffff50700ff0300
 43a: 00fdfdfefa0b00fafe05
 43b: fbfcfc00020202000200
 43c: 050504fa01fefdfbfc01
 43d: 00fd000202fffb01ffff
 43e: fdfffc0301fbfe030100
 43f: fd02fd0201000501fffe
 440: 05fd02fa03f1f9fbff02
 441: 00fcfdfff70800fe0301
 442: 00f9fefbfd0802fb0106
 443: fbfefc000602010105ff
 444: 070604fd02fffe00fc00
 445: 01ff00000000f80102fe
 446: f900fe0203fcfc030300
 447: fe03000000fd030200fd
 448: 09ff02f905f2fcfb0100
 449: fef7fefff60602ff01ff
 44a: 00f6fcfafc0603000106
 44b: feff00ff0300000102fe
 44c: 060500ff0000ff00fcff
 44d: 0200ff0102fefa000300
 44e: ff00ff0203fefc0301fe
 44f: fc03ff0000fd020202fe
 450: 080001fe03f4f8fc0300
 451: 00fcfffefa0aff0001ff
 452: 00f7fbfdfd020300ff01
 453: fc00ffff0201fe0102fd
 454: 040300000000fe00fd00
 455: 03ffff000103fa0201ff
 456: fbffff0202fffb0102fd
 457: f9050001fffc000100ff
 458: 060001fe04fafbfe01ff
 459: 00fffcfcfe0dfefffffe
 45a: fffcfefcfc000301ff03
 45b: fe00fdff0203fd0104fc
 45c: 01040000fefe0001ff00
 45d: 05fefdfd0106fa0100fd
 45e: fd00fe020101fb0203fc
 45f: f904000301ff010002ff
 460: 060301fffffcfe01fe00
 461: 01fff9fafd10fdfe00fb
 462: 0002010100000104ffff
 463: 04000000fe01fe00ff00
 464: ff04000000fe030000ff
 465: 02fe00fa000000fe0104
 466: 0000000000ff0000feff
 467: 00030200ffff0000fd00
 468: ff0000feffff00000100
 469: fcff0102fffdff0201fe
 46a: ff02feffff000003fefd
 46b: 04020201fefa0001ffff
 46c: fe00020000000001ffff
 46d: 03fdfdfeff0000fe0202
 46e: ff01040000fe0002ff01
 46f: 00030301fdff0001fbff
 470: ff0000fefd0001000100
 471: fcff0003fdfeff020000
 472: 0000000000fd0004fdfe
 473: 0200020000f80304fcff
 474: fe010301fe0000000000
 475: 01fcfbfc000000ff0101
 476: ff000001fffb0100ff02
 477: fe030500fdfefffffb00
 478: fffefefdff02000002ff
 479: fdfd0203fffffe0200fd
 47a: ff010000fefaff0300fd
 47b: 0100050500f70002fdfe
 47c: fc0001ffff00ff0001ff
 47d: 01fcf9fc010000ff0101
 47e: 01ff0001fdfe01fefe00
 47f: fe040103feff0000fb02
 480: fefcfe000200ff0005ff
 481: fefb0302fd00fe0301fd
 482: 000200fe00fcfc0201fd
 483: 00000304fff90000fd00
 484: fa0003fffe02fd0101fe
 485: 02fdfbfd000002000304
 486: 02feff0001fe02fefe04
 487: 0007050400fd00fffeff
 488: 00fc00fd0000ffff0400
 489: fffd0402fbfdfa0400fd
 48a: fe0000fc00fdfd0401ff
 48b: 00ff030800f9ff00fb00
 48c: fe0100fe0000fd0003fd
 48d: 05fdfdfc010001000102
 48e: 02fefd0100fc02fcfb03
 48f: ff02040500ff0000fafe
 490: fefcfdffff01fffd0500
 491: 00fe0303f9fef60401fd
 492: fcfffffefffefb010300
 493: ffff0107fffdfe02faff
 494: fc04fffffe01fcfe04fc
 495: 02fefbfc010302000001
 496: 02ff000400fd00fdfe03
 497: 0004000400fe0001f902
 498: fc00fdfc0002fcfb0503
 499: fffd0303fbfff3030001
 49a: fb0000fc0000f8020600
 49b: 01fd020601fcfffffc00
 49c: fd02ff00fd00fc0003ff
 49d: 0000fbfc0000ff010100
 49e: 01fcfd00020001faff03
 49f: 0003000400fe0100fafd
 4a0: f902fcfe0001fefa0601
 4a1: fdfc0004fa00f4020101
 4a2: fafb00f80202f8010600
 4a3: 00fc010703fc00fcfa04
 4a4: fc0200000001fcff01ff
 4a5: 0200fcffff00fdff0101
 4a6: 03fcfffd030101fbfc04
 4a7: 0100000202ff03fffafd
 4a8: ff02fefd0100fcfa0600
 4a9: fdfd0008f800f8000003
 4aa: f9fe00f80304f7000601
 4ab: fffc0003030006fcfa02
 4ac: 000100ff0002000001fc
 4ad: 0000fcfe0000fefd0103
 4ae: 00fafefe030003fdfd03
 4af: 0100010005fe0300f9ff
 4b0: feff00fc0002fafa0602
 4b1: fdfb0105f702fa010003
 4b2: fafc02fc0302fafe02fd
 4b3: faf9000701fe05fcfa02
 4b4: 010302fa0000fffffffc
 4b5: 0000fd030000ff000001
 4b6: 00fa00fe03fe00fe0003
 4b7: 01fe01ff05ff0300fb00
 4b8: 02ff00f904fefaff0300
 4b9: fdfb0203f502fd02ff03
 4ba: fafd00fa0204fdfb04fe
 4bb: f9fe0006020004fbff01
 4bc: 010305f902fffd00fefa
 4bd: 0002ff0100fffc00ff01
 4be: fffd000102fd0000ff01
 4bf: fe0102fd04fd01fefafd
 4c0: 010101f906fcfa0100fb
 4c1: fefb0102f701fe010004
 4c2: fbfd00f7fc08fffe0101
 4c3: fbff000300ff03000100
 4c4: 030505f801000000fefd
 4c5: 0001000200fffe0200ff
 4c6: fffe010301fc00ff0000
 4c7: 010004fc02fc06fefaff
 4c8: 03ff03f706fcf80100fb
 4c9: fefb0001f50300000001
 4ca: fbfefffbf90c01fdfd00
 4cb: f8ffff0502fb07fd0202
 4cc: 040204f70100fe00fefd
 4cd: ff00000000fefc0200fe
 4ce: fd00000001fc01000101
 4cf: fe01030003fb05fcfe00
 4d0: 040002f708fcfaff00fe
 4d1: 00fbfe02f70700030200
 4d2: ff00fefdfd0901fcff03
 4d3: fbfe000102fa04fd0503
 4d4: 040300f70100fffcfd00
 4d5: 0000ff0103fffc020000
 4d6: fc00000400fb000105ff
 4d7: fe00000200fc03feff00
 4d8: 03ff03f806f7f8ff0000
 4d9: 00fbfc00f50600010300
 4da: fdfcfc01fb0904fcfe00
 4db: fbfdfd0004fe03010100
 4dc: 040503fb00fffefafd00
 4dd: 01ff000202fefb0201fe
 4de: fc00fe0202f8fe000200
 4df: ff02fd01fffb030200fd
 4e0: 07ff05f803f5fafe0001
 4e1: fffcfb00f70600000100
 4e2: fdfafbfffd0902f9fe03
 4e3: fdfefc0005fefe0103ff
 4e4: 040404fefffcff00fbfe
 4e5: 0200ff0001fcf8010000
 4e6: fb00000302fbfb0102fd
 4e7: fd03000100fa010101fd
 4e8: 07fe03fc03f5fafb00ff
 4e9: fffafb00f80700010100
 4ea: fffafafffd0503fdff02
 4eb: fc00ff0202fdfe0201ff
 4ec: 060200fe01fdff00fa01
 4ed: 03fdff0100fffa010200
 4ee: fd00ff0500faf90502ff
 4ef: fa03ff0300faff0002ff
 4f0: 090100fb03f6fbfb0000
 4f1: 00fcfbfffb08000002fe
 4f2: fffcfcfeff0304fdfe01
 4f3: fefe000203fefd0103fe
 4f4: 050402feff00ff00fd00
 4f5: 01fd00fe0200fd010200
 4f6: fe00000100fdf90304fd
 4f7: fa02000500fcfeff01fe
 4f8: 0a0002fc02f9fafd0000
 4f9: fefefcfcfb0bfbfd02fd
 4fa: 00fdfcfdff0005000001
 4fb: fe00ff010402fd0003fb
 4fc: 06020000fe000101fe00
 4fd: 03fbfcfe0102fb0000fc
 4fe: fefefe010100f80003fd
 4ff: fa05fe0402fefe0001fe
 500: 060102fd00fdfd00ffff
 501: 02fff9fcfd0bfcfd02f9
 502: 01020001fffd0005feff
 503: 03000102fffe0005feff
 504: 000301fd000000ff0000
 505: 03fdfdfcffff01000202
 506: 00000100ffff0001fd00
 507: ff040001ff000101fdff
 508: 0100fcfd010000000000
 509: 0000ff00fe00ff020100
 50a: 0001000000fdff03fefd
 50b: 0101000200fcff05fcfb
 50c: ff00ff00ff0000000100
 50d: 03fcfafaffff00000301
 50e: 00ff0000fefd0101ff01
 50f: ff02020200ffff01fc00
 510: 00fefefa000001000400
 511: fcff00fffffffe0200ff
 512: ff020001fffcff02fdfd
 513: 00000403fbf90102fcff
 514: fc010000fe02fe000001
 515: 04fbfafa000000000204
 516: 01000201fdfc0101fd00
 517: 00050201fcfe0201fd00
 518: fffefbfe000101fe0100
 519: fffe0100fdfdff0300fd
 51a: ff00020000fdff02fefd
 51b: 00010504fff80000fefe
 51c: fb010200fe01ff010300
 51d: 05fcf8fc000002000103
 51e: 01000001fefc03ff0000
 51f: fe040102fcfd0200fb01
 520: fffdfe00000300fe0300
 521: fafe0201fefffc0301ff
 522: fd020100fdfefcff0000
 523: 00010305fff9fd00feff
 524: fb0101fffe01fffe0300
 525: 01fefafc04ff00ff0204
 526: 04fe000101fd0000feff
 527: 0003020300fc00fffa00
 528: 00fc00fbfe00fffe0500
 529: feff0500fefffa0202ff
 52a: fe010000fefffafc0200
 52b: 0000030700fcfdfffcfe
 52c: fa00ff02ff02fefd0200
 52d: 04fbfffc020004fe0202
 52e: 02fcfe00ff0001ffff00
 52f: 00050306fe000001f9fe
 530: fc00fbfe0000fffc0502
 531: fffe0500fefff8030100
 532: fb0101fdfefdfcfb0502
 533: 0001050400f9fefff9ff
 534: fd0300fefe03fdfa0202
 535: 0300fcfb02ff00fe0203
 536: 01fdfe0001fdff00fd01
 537: ff030104fefd0100f800
 538: fd01fcfe000000f90801
 539: 00fd0301fdfff5020000
 53a: fafd04fe0001fbfc0302
 53b: 00ff060505fdfffef700
 53c: fc05ff00fe01fefd0400
 53d: 0202fcfe020000000101
 53e: 02fc00ff02000001fc04
 53f: 0303010300fe0102fafe
 540: fa00fbfd0000fcf80603
 541: fdfd0303fa00f5010201
 542: f9fa02fb0301f9fb0400
 543: fffe020702fd02fbf902
 544: ff03fefbff00fffe0500
 545: 0001fefd000200fd0000
 546: 00fdfdfe00ff0100fd01
 547: 0201020000fc0300fafe
 548: fe00fdfb0002fbf80704
 549: fcfd0205fb00f802ff04
 54a: fafb02fa0405fcf80302
 54b: fdfc030400ff02fcf903
 54c: ff0100fdfe00fe0006ff
 54d: 00ffffff0001fd000105
 54e: 00fb0000030000fffc03
 54f: 0101030000fd0200faff
 550: 0000fefd01fffcfb0601
 551: fdfd0007fa00fe000104
 552: f9fa02f90305fef702fe
 553: fcff020502ff03fdfc03
 554: 000200fa00fdfc0003ff
 555: 0001fe0100ffff000005
 556: 0000010003000000ff02
 557: 000002fe02fc0100f7ff
 558: ff01fffa04fafdfe0400
 559: fdfd0006fb01ff000004
 55a: fbfc01fb020701f600ff
 55b: fbfe0003000003ffff02
 55c: 010403f90200fe01fffa
 55d: fe02fe0202fffe01ff01
 55e: 010000ff02fd000000ff
 55f: 010201fd06fc0300f9fd
 560: 010001f904f7f90102fa
 561: fffc0004f603ff000004
 562: fdfa00fbfe0801f700fd
 563: fcfeff0201fb04fc0000
 564: 050502f90100fd00fcfe
 565: 0003ff0300feff040001
 566: fffefdff00fb00000300
 567: 000300fe02fc0400fcff
 568: 010102f603fbf802fffb
 569: fffcfd03f805ff02fd01
 56a: fcfc00fafd0706fa0200
 56b: fdffff05fffb02ff0201
 56c: 050204f60300ff00fafc
 56d: fe00000002fdfc040100
 56e: fc00010300fbff030200
 56f: ff0100ff00fb04fe0000
 570: 0600fff60bfaf70201fc
 571: 00fbfc03fa050002ffff
 572: fafd00fefd0704fa0000
 573: fdfcff05fffa00020500
 574: 000300fb0000fefef700
 575: fe00000102fefd05ffff
 576: fdff000300f9fe010400
 577: 00000000fefc020202fc
 578: 04fd01f804fbfa0000fb
 579: 01f9fc03fb070002fffe
 57a: fcf9fd00000802f90101
 57b: feffff0100fb000304fe
 57c: 040502f90000fefefa00
 57d: 00ff000001fefd040101
 57e: fb02000400f8fc010200
 57f: ff010001fefd030300fd
 580: 04fd01f903faf9fdff01
 581: fff9fb00fa04000202fe
 582: fdfafd00ff0704fcfd01
 583: fefe000101fcfa0101ff
 584: 060404fdfe000000f800
 585: 00feff0100fcfb010000
 586: faff010302f8fd020100
 587: ff04ff01fefcff0004fe
 588: 05fe01fa02fafbfb0101
 589: 00fbfb00fc05000101ff
 58a: fef8f9ff000604fdfe01
 58b: fafd000105fdfd000400
 58c: 050500fe00ffff00fc00
 58d: 03fc000002fefd000000
 58e: feff000400f8fa020500
 58f: f903020500f9ff010200
 590: 080000ff02f9fcfd0000
 591: fefcfbfffb0400000000
 592: fbfdfcfe01040200fe03
 593: fe00000103fffb0005fd
 594: 030501ffff00fd00fcff
 595: 02fa00ff01fdfd03ff00
 596: fd00000000faf80003fe
 597: f9030004fefaff0106fc
 598: 0700ffff00fc00fdfdff
 599: 00fdfe00fe0400ff02fe
 59a: fdfe00fd00000600ff00
 59b: fc00010201fdfa0003fd
 59c: 05040200fdff0000fb00
 59d: 03f9fffc01fffc000000
 59e: fefd000201fcf9000300
 59f: fc02000500fcfc0204fd
 5a0: 070000fffffbfe00feff
 5a1: 02fdfdfe0007fcff02fd
 5a2: 0001ff01ff00ff01fc00
 5a3: 0103020000ff000100ff
 5a4: 0004ffff000000000001
 5a5: 05fffbfa010000fe0002
 5a6: 00000100ffffff00fe00
 5a7: ff030301ff000002fcff
 5a8: 0200fcfa000000ff0003
 5a9: 0000fdfd000000010001
 5aa: 000100fffe000102fd00
 5ab: 00010401fdfd0100ffff
 5ac: 0005fb00010000010300
 5ad: 05fdfbf902fd01ff0002
 5ae: 000000fefeffff0300ff
 5af: fd050203ff000002fa00
 5b0: 0200f9fa00fe00ff0200
 5b1: fffefffd0000ff0302ff
 5b2: 00030000fe000000fd00
 5b3: 00000602fffbff0100fe
 5b4: fe0101ff000000000102
 5b5: 03fefbf8000002fd0202
 5b6: 03ff0000fdfc0101feff
 5b7: ff060301fc000100fd01
 5b8: fefdf7fa010000ff0304
 5b9: fefd00ff0000ff0102ff
 5ba: fe040300fd00000000ff
 5bb: 0001040100fb0000ff00
 5bc: fc0000fe000100000001
 5bd: 03fcfaf903fd01ff0201
 5be: 0300fe0000fe0201ff00
 5bf: 00050300feff0000fdff
 5c0: 00fdfbfc02fffefe0203
 5c1: fcfd00fd00fffc0100ff
 5c2: fd020300fd02ffff0000
 5c3: 0000080000fa0001fe00
 5c4: fb000200fd0000fe0002
 5c5: 03fcfbf9020103000102
 5c6: 0200fdfd01fd0201fd01
 5c7: 01050203fe000000fa00
 5c8: 00fcfcfd010001fd0303
 5c9: fcfd02fe0000f9010001
 5ca: ff0202fdfd01fcfc0003
 5cb: 0300050500fcff02fafd
 5cc: fb0000feff04fcfd0200
 5cd: 0100fff9020001fe0103
 5ce: 03fffc00fffd0300fc00
 5cf: ff060302fcff0001fa00
 5d0: fffffbff000000fa0404
 5d1: fffc02000001f7010001
 5d2: fbff04fefcfff9fa0203
 5d3: 0000060600fa0002f9fe
 5d4: fc000000fc02fefc0402
 5d5: 0400fdfb02fe00fc0001
 5d6: 0400fefe01ff0001fefe
 5d7: 01070202fffe0002f8ff
 5d8: 0001f9ff0000fef90503
 5d9: fdfb02010001f5020002
 5da: fcfc04fcfd04f9fa0402
 5db: ffff050802fc0101f701
 5dc: fe00fd00fd00fbfe0300
 5dd: 0302fcfd05ff00fc0201
 5de: 02fbff0002000100fc01
 5df: 00050201fefe0004fafe
 5e0: fffff600fd03fdf80605
 5e1: fefc02040000f7000104
 5e2: fbfa07fd0206faf70200
 5e3: 00fe010601fc0000fa00
 5e4: fe01ff00fd00fefe0402
 5e5: 00fffdff000000fe0102
 5e6: 02fdfffe02ff0002fc01
 5e7: 020104ff01fd0002f8fe
 5e8: 0000f600ff00f9fa0804
 5e9: fffc0103ff01f9010004
 5ea: fcfb06fb0106fbf70200
 5eb: fefc020401ff0100fb01
 5ec: fefffefefffffc0201fe
 5ed: ff01fe000200fffe0003
 5ee: 02ff00fd03000000f903
 5ef: 010202ff00fd0005f7fb
 5f0: 0000fafe0000fcfe06ff
 5f1: fdfc0003fffffd00fe05
 5f2: f9fb04fd0207fff800fe
 5f3: ff00010300fe04fbfb00
 5f4: 0104fefa00fefd030000
 5f5: ff02000100fdfefe0304
 5f6: 01ff00fe020001fffd04
 5f7: 000600ff01ff0004f9fe
 5f8: 0000fefc00fefc0004fe
 5f9: fffa0005ff00fcff0005
 5fa: f9fc03fc000703f500fd
 5fb: fe01ff0300fe04fffefe
 5fc: 020901f900fefa03fcfe
 5fd: fe01ff0200ffff010002
 5fe: 0103fd0001fe0200ffff
 5ff: 030800fd02fe0203f9fc
 600: 0103fef904fbfa0402fb
 601: fffbfd03fe01fd00fe03
 602: faf902fdff0903f9fffc
 603: fdfefe0100fc02ff02fd
 604: 050404fa0201fd02f7fd
 605: fe02000302fefe04ff01
 606: 0001fefe00ff00010000
 607: ff0401fe00fe02fefcfd
 608: 050200f904fbfa04fefa
 609: 00fdfe03fc030003ff00
 60a: f9fa00fdfe0905fbfffb
 60b: fd00ff02fffc03000300
 60c: 030403fa0200fdfff7fb
 60d: fe01fd0102fbfe040002
 60e: ff00010000fcff030200
 60f: 00020000fdfc0300fdfe
 610: 060100fa07fcfb01fffc
 611: 00f9fa04fd05ff0401fd
 612: faf9fdfffd0704fb00fc
 613: fcfd0001fffaff0303fe
 614: 040400fe0103fe00f6fd
 615: 00ff000201fefe020000
 616: fd010000fffaff020400
 617: ff000201fefe010200fc
 618: 04ff00f903fef903fefc
 619: 02fafb02ff01000300fb
 61a: fbf80001000506fe00fe
 61b: fefb000101fa000104fe
 61c: 0505fffb0003fffef900
 61d: 0000ff0204fefc02fe00
 61e: fd00010301f6fd0301ff
 61f: fe01010000fc00010300
 620: 02ff00fd01fefa00faff
 621: fff8fa03ff01000101f9
 622: fafbfb01010204fc00ff
 623: ffff000103fafd0104fe
 624: 020400fe000001fdf902
 625: 01fd000002fefe01ffff
 626: fc00030301f6fb040300
 627: fc020104fefcff030100
 628: 04ff01fc01fefdfffb02
 629: 00fbfc00fe03010002fc
 62a: fbfbff01000402fd00fd
 62b: fe00000000f9fd000400
 62c: 020500fffd0001fefa01
 62d: 07fbff0003fbfb01ff01
 62e: 00fffe0201f6fb000400
 62f: fc02040200f9fd0001ff
 630: 0400ffff04fcfefefb03
 631: fffbfd00ff00010001fd
 632: fcfafc00020202fcfe00
 633: ff00000201f9fa000700
 634: 030603ff0001ff00fbff
 635: 04fa00ff00fcfd000000
 636: ffff010201f8fa000200
 637: 0004000300f9fb0003fe
 638: 0604fefffffc00fefd00
 639: 00fcfe00ff00fefe02fe
 63a: fcfe0100010006fe00ff
 63b: fefe020000fafb000400
 63c: 0405fe000100fc00fcff
 63d: 03fc00fb02fdff000100
 63e: 00fe010002f8fb0305fe
 63f: fb01000302f9fa0203fe
 640: 0701000001fafdfffd00
 641: 01fcfcfc0000feff04fc
 642: 0000fe0200fe0000fefe
 643: 0101020000fe0000fefc
 644: 0104fcfe01000000fe01
 645: 07fefcfb01fd02feff02
 646: 00010001fd000001feff
 647: 010301000000ff02fc00
 648: 0300f8fa020001ff0002
 649: 0000fefb0001ff00ff02
 64a: fe03fe01ff02000000fe
 64b: ff020501fffeff0200fe
 64c: 0002fdfe03ff01ff00ff
 64d: 03fcfafa020001fe0003
 64e: 030000fffefeff00feff
 64f: fe040100ff00fe0100ff
 650: 02fff9fb020002000401
 651: 00fcfcfa030000000000
 652: fc020001fc02000000fd
 653: ff000601fcfd000200ff
 654: fe01f900020200000002
 655: 06fbfaf902fc01ff0102
 656: 06ff00fcfffd0000fefe
 657: fe030300fe000000fc00
 658: fdfef7fe000002000204
 659: fffdfdfd0000fe020100
 65a: fd010004fc000000feff
 65b: 000006ff00fffe02fffc
 65c: fe02fdff0002fdff0302
 65d: 02f9f9fb050004fd0102
 65e: 0200fcfd00fe0202fe00
 65f: 01020400fefefdfffd00
 660: 00fef5fe02ff00fe0302
 661: 00fe00ff0300fa000201
 662: fe010003fb050000ffff
 663: 0000050101fffc03fffd
 664: fe00fb000002fffd0303
 665: 05fafafb050001fe0102
 666: 05fdfcfb00fe0104fffe
 667: 00040200fb000002fc01
 668: fffafb00000000fc0204
 669: fefc00000201fb000200
 66a: fd000102fa03fdf90100
 66b: 0101050200fcfc03fcfb
 66c: fc01fb00fc01ffff0200
 66d: 03fefffb030002fd0102
 66e: 04fdfcfe02fe0201ff00
 66f: 00050101fdffff05fbff
 670: 00fff8ff0000fffc0104
 671: fefd01fe0002f8000101
 672: fa0005fefe02fbfe0001
 673: fdff030301fefe04fbfe
 674: ff00fb01fb02fffe0201
 675: 0301fcfc050001fe0000
 676: 04fefefd01fefe04fc01
 677: 01050102fbfdfe08f8ff
 678: 00fff7000001fefa0201
 679: fcfcff010003f9000001
 67a: fcfc03fe0000fbfc0100
 67b: fe00000501ff0005fa00
 67c: 0100fa01fd02fbfe0201
 67d: 0101fffe000001ff0101
 67e: 02fefefe00ff0002fa04
 67f: 02030101fffd0005f9fc
 680: 00fff7ffff04fefb0106
 681: fafcfe040002f9ff0003
 682: fbfc04fdfe02f9fa04fe
 683: 00fe010500000104f5ff
 684: ff03f70200fffbff0203
 685: 0100fe01000000ff0300
 686: 02fefdfc0300ff02fd01
 687: 010202fd00fd0007f9fc
 688: ff00f700ff00fef90401
 689: fdf901020200fbfefe06
 68a: fafa00fb0002fffc03ff
 68b: fefffe010100ff00fb01
 68c: 0002fa000000fcfe0200
 68d: 0002fe0101fe02ff0003
 68e: 02fffefc05000000fc02
 68f: 020500fe00ff0008f8ff
 690: 0100f8000000fefe0202
 691: fcfa00040200fefdff06
 692: fafe01fd000300fb01fd
 693: 0000000000fd0001ff00
 694: 0005fcfe00fffb0101ff
 695: fd02000100feff000002
 696: 0100feff01ff0301fd00
 697: 0306fffd01fe0007f5fc
 698: ff02fbfefffffe0102fe
 699: fcfcfd050202fefeff04
 69a: fafc02fb000405f7fefb
 69b: ff0100ff02fe0400ffff
 69c: 0507fcfc00ffff02f9ff
 69d: fc00000101fd00000002
 69e: ff00fd0000ff00030000
 69f: 040800fafcfd0101f7ff
 6a0: 0105fcfe04fdfb0500fd
 6a1: fdfafe0601000100ff03
 6a2: f9fa02feff0907f4fefd
 6a3: fefe000000ff000102fe
 6a4: 060400fc0202fe02f9fc
 6a5: fe01ff0301fd00010002
 6a6: ff00000000ff010000ff
 6a7: 030601fbfdff0002f9fb
 6a8: 0701fcf901fdf906fefb
 6a9: fffcfe050101fe0003ff
 6aa: fbf800fefe0b05fafffc
 6ab: fefc010000fe020104fe
 6ac: 040301fc0103fc03f7fd
 6ad: ff03000100fdfe03ff01
 6ae: ff01ff0001fbff010300
 6af: 000100fffefffe02fe00
 6b0: 06fcfffc05fffb04fffc
 6b1: fff7fb070002000101ff
 6b2: f8f70000fe0708fb01fd
 6b3: fe00000001fc000204fe
 6b4: 0405fffe0005fd05f6fe
 6b5: 0100000002fe0003ff00
 6b6: fa00000400fbff010100
 6b7: 0004020000fbff03fffc
 6b8: 05fcfefd0400f906fcfb
 6b9: fff6fb050301010001f9
 6ba: f7fb0002ff07070003fc
 6bb: fdfe000103f8000104ff
 6bc: 020300fffe04ff01f901
 6bd: 0200010002fffe04ff02
 6be: fb00010101f7fe0400ff
 6bf: 00020102fffdfe000000
 6c0: 0400fe000101fa03f9fb
 6c1: fff9fe020202000202fb
 6c2: fafc0003ff0503fe00ff
 6c3: fcff020004fa00020201
 6c4: 0204fefdff0500fefa01
 6c5: 00fb000004feff02fdff
 6c6: ff01040202f5fb0202ff
 6c7: fe040001fffbfe010000
 6c8: 0601fffe0000fffffaff
 6c9: fffdfd030000000003fa
 6ca: fafb0003000403ff00fc
 6cb: ff00020101fa00010300
 6cc: 0105fe00ff0301fff800
 6cd: 03fa00fe03fc0000ff00
 6ce: 00fe020103f6fa000200
 6cf: 0004000100f9fe0000ff
 6d0: 0501feff00fffefef900
 6d1: 01fafc0000ffff0102fc
 6d2: f8fdfe020102030001fd
 6d3: 0100030000f8fe0105ff
 6d4: 0105ff00ff000000fa00
 6d5: 04fafd0001fb00010000
 6d6: 00fd040006f8fd020200
 6d7: 0002000104fafcff00fd
 6d8: 0601fe0000fd0101fa01
 6d9: 01fcfe0100fbfeff04fb
 6da: faff02020300010000ff
 6db: feff040003f6fd0104fe
 6dc: 00000000ffff0100feff
 6dd: 04fd00fe00fbff000000
 6de: 00fc01ff04f7fe040300
 6df: fd02020101fbfc0001ff
 6e0: 0802fffbfffd0000fdff
 6e1: 02fc00fd03fbff0002f9
 6e2: ff030101fe030000fe00
 6e3: 000103010002ff0200fc
 6e4: 0004fdfe01020100fe01
 6e5: 08fcfdfa01fd01fb0002
 6e6: 030102ff0100ff00fffe
 6e7: fe020100ff000000ff00
 6e8: 0301fafa02ff02fe0000
 6e9: 0000fbfc0000fe010103
 6ea: ff010002fd020001fcff
 6eb: 000005fe00010000fffd
 6ec: ff04ffff02ff00000100
 6ed: 04fdfcfb01fe00fd0000
 6ee: 030201ff00ff0200fffd
 6ef: fe03020200fffe00fffe
 6f0: 01fffafd010000fe0101
 6f1: 00fdfdfa020200000000
 6f2: fc020003fe020102fdff
 6f3: ff000502fe00fe03fffc
 6f4: fdfffdff0201ff030000
 6f5: 06fdfcfa03fe03fb0003
 6f6: 040000fd00ff0000fc00
 6f7: ff040100fdfffe01fbff
 6f8: 00fdf8fd0202fffd0202
 6f9: 00fefdfd0101fb00ff00
 6fa: fb01ff04fb02ff00fffe
 6fb: 000003fffe00fe0500fc
 6fc: 0003fcfffe0000000001
 6fd: 04fcfdfb030001feff01
 6fe: 0500fefb00fe0202fc00
 6ff: 000401ffff00fc02fb00
 700: fffff9ff000102fe0303
 701: 00fefdfb0104fd000101
 702: fc01fe05fa04ff00fa00
 703: 000105000101fc07fcfc
 704: fe00fd00fd03fefcff04
 705: 02fffefc02fe03fe0203
 706: 0300fefd01fc02fffc00
 707: 0003ffff0000ff03fb01
 708: fffcfa00000200fc0003
 709: fdfffc000002f9000301
 70a: fc00fe03fd04fdfefc00
 70b: 00fe010000fefe06fefe
 70c: 00fffb00fe02ff000002
 70d: 06fe00fc03ff03fc0003
 70e: 0401fbfefffc0103fe00
 70f: 00040001fe01ff05fbfe
 710: 00fef603ff0000fcff03
 711: fcfffe000204f7000100
 712: fcff0004fc03fdffff01
 713: ffff030101fdfe09fafe
 714: 0002f902fd0200ff0100
 715: 0202ffff02ff00fdff00
 716: 04ff00fc01fd0002fc00
 717: 0004ff00fb000008f9ff
 718: 0000f504fe00fffc0005
 719: fcfcfe020202f8ff0002
 71a: fcfb0001ff04fbfe0000
 71b: fefd0100ffffff0afb00
 71c: ff02f501fc02fdff0202
 71d: 0000000002ff01fdff00
 71e: 01fc00fd01ff0003fc00
 71f: 02030000ffff0009f9fc
 720: fffef403fc03fefb0101
 721: fafa00040203faffff03
 722: f9fafe000005f7fdfe00
 723: fefe00ffffff0006fb00
 724: 0000f903fe02fe000001
 725: 00010000000101ff0000
 726: 06fcfffc02fe00fffd02
 727: 0105ffff00fc000af9fe
 728: 00fff600fd0100fd0203
 729: fafbfd030100fcfdfe00
 72a: f9fc00fd0108fcfc0001
 72b: 00ff00fe00000001fb01
 72c: 0101f9020000fc00fdff
 72d: fe010001010000ff0002
 72e: 05fffffd010001fefd04
 72f: 0603fefa00fffe07fafe
 730: ff01f701ff0000000101
 731: fcfb00050203fffbff04
 732: f9fefefc000600fc00fe
 733: 020300ff00ff0001fd00
 734: 0207faff0100fc02fefe
 735: fd02000000fc01000201
 736: 03fffdfd01fe02feff01
 737: 0509fffafeffff06f6fe
 738: 0003fbfc02fdfe000100
 739: fcfafe050103fffcfd05
 73a: f7fd00fd010802fafbfc
 73b: 0100ff0000ff0300ff00
 73c: 0407fafe01fffc02fcf8
 73d: fe01000100fe02000003
 73e: 0000fffd00ff00fefe00
 73f: 0307fdfcfefe0007f8fb
 740: 0104fcfd00faff0301fd
 741: fcfbfd060001fffc0002
 742: faf900ff000905f8fefa
 743: fefefeff02fd000001fe
 744: 0504fdfe00000003fbfc
 745: fe01000002fd01010200
 746: fe00000000fe01000000
 747: 010300fcfd010003fcfd
 748: 0203fafd02fdfe05fefc
 749: fcfcfd04000000ff0200
 74a: fafafd00ff0c03fc01f9
 74b: fefe01fd05fd010204ff
 74c: 0501fefc0100fe03fcfb
 74d: ff00000102fd00030100
 74e: fd0200ff00fb00020002
 74f: 000002fefffcff02fefd
 750: 05fdf9ff01fffd06fffa
 751: fbfbfe0700fe020102ff
 752: f6fc0000fc0a04fc02fa
 753: fd0002fd00fbff0202ff
 754: 0302fffe0105fd04fbfd
 755: 0000010004fe00020100
 756: fb00000100fa00000003
 757: 000202fe00fbffff0000
 758: 04fffafe0202fb05fdf9
 759: fefa000302fe000004fb
 75a: f9fb0002fc0608ff04fb
 75b: fc01040001fa000201fe
 75c: 0104fefdfc04fd01fbfe
 75d: 02fe020004fc0003ff01
 75e: fd00020102f6ff010000
 75f: fe0204fefdfd0001ff00
 760: 04fefe000002fe02fefc
 761: 00f7fc0202ff000106f9
 762: f7fc0002fe05050000fa
 763: ff0004fe01fb000005fd
 764: 0403fc00000300fefa04
 765: 02fb010001fe0003ff00
 766: 0000020000fafe00ff00
 767: 0003fffe00fcff000001
 768: 0500fb00fe02fe00fa00
 769: 02fbfd0000fc000104fa
 76a: f9fffe01fe01020002f9
 76b: fe0004fe02f7fd0204fe
 76c: ff05fdff00010200fa00
 76d: 03fb00ff03fb00020000
 76e: 00fd000003f7fc02ff01
 76f: 00020100fdfaff0201ff
 770: 0202fd0100ff00fffc00
 771: 00fdff0202f9030403f9
 772: f8fd00030003000203fa
 773: 02ff040000f4fd0301fe
 774: 0003fd0100030000fc00
 775: 02fa00fd01fc0101ffff
 776: fffb04ff04f7fe040000
 777: fd0100ff01fa0003ffff
 778: 0400fc00fffc00fefdff
 779: 00fd01ff03f7030105fa
 77a: f9fe03020201ff00fffd
 77b: 01ff08fb00f5fb0303ff
 77c: 0004ff0000000000feff
 77d: 04fe010001f90000fcfd
 77e: 00fa03ff02f6fd0202fe
 77f: 0003030000fafd0100ff
 780: 0602ff00fefe0000ff00
 781: 01ff01fd00f9000001f8
 782: fe0200020001fffffd01
 783: ff0004000100ff02fffd
 784: 0003fffe00000000ff00
 785: 05fefdfe00fb02fdfd00
 786: 0000010000ff0000fffe
 787: fd050100fe000003fb00
 788: 03fff8fb010000fdff00
 789: 0200fbfd030000000001
 78a: fd020000fe030100fbff
 78b: 000004fe0100000100fb
 78c: fe01fdfd00010002feff
 78d: 06fefcfb02ff05ff0001
 78e: 020002fd0000ff000000
 78f: ff040201fd0100000000
 790: 00fffcfe00ff03ff0000
 791: 00fefbfc03000000fe00
 792: fd00ff04fe050000fbfd
 793: fe0004ff0101fd0200fb
 794: 0000fb000000fefffd00
 795: 04fcfefa04ff01fe0000
 796: 04fffffcfffd0100fdff
 797: fe0202fffd01ff00fd00
 798: 00fefafd020200000002
 799: fefdfcfc0301fe000000
 79a: fbff0003fe070001f900
 79b: fd0001000000fc0202fb
 79c: ff00feff000100fffd00
 79d: 03fcfdfb02fe01fe0102
 79e: 010100feffff0001fbff
 79f: ff0500ff0001fe01fd00
 7a0: 00fef900000200fefe01
 7a1: 00fdfffc0102ff000100
 7a2: fefefb06fc06fd00f701
 7a3: fe01000002fffe0502fd
 7a4: fefffd0300040000fe03
 7a5: 07fdfffb03ff03fb0100
 7a6: 01ff00fb00fd0104fefd
 7a7: fe020001fc010001fdff
 7a8: 00fef606000301fcfe01
 7a9: fefaff000304fa000000
 7aa: fbfefd04fe04fe01fa00
 7ab: 0000030000fffe0800fa
 7ac: fe00fa02fd01fefefe00
 7ad: 030000fb02fd04fe0000
 7ae: 0500fdfb01fc0004fffd
 7af: fe040101fc00fd07fcfd
 7b0: ff00f502ff010000ff01
 7b1: fcfeffff0602f8000000
 7b2: fdfdfe06fd03fc01fa02
 7b3: feff000002fdfe09fefd
 7b4: ff00f802fc03ff00fd00
 7b5: 04ff00fe01fd03000100
 7b6: 02fdfffc00fd000500fe
 7b7: 0004fffffc000009fefe
 7b8: 00fff604fc0101fc0100
 7b9: fcfdfe010304faff0200
 7ba: 00f8fe030000fcfff901
 7bb: fffa030000fffd06fffd
 7bc: fe01f805fc00ff00ff00
 7bd: 0000000001ff02fd0000
 7be: 03fb01fa00fe01030100
 7bf: 0104ff00ff00fc0bf9fb
 7c0: fd01f301fb0102000200
 7c1: fcfbfe040103fafd0003
 7c2: faf8fe000100fc00fb01
 7c3: 00ff00fd0000fe07fe00
 7c4: 0002fb04fd020000fe00
 7c5: fe0000fdfffe02ff0100
 7c6: 04fc00fa00fe0101ff02
 7c7: 0204fffbfefffd0afcf8
 7c8: ff02f700fc0302fe0301
 7c9: fcfb00020102fdfafe04
 7ca: fcfb00ff040100fffd02
 7cb: 020000feffff0000fb02
 7cc: 0003fb040000fc00fe00
 7cd: fd06000000fe01fe0000
 7ce: 03ff00fd00ff0300fc00
 7cf: 0307fffafc00fe06fbfc
 7d0: fe02fb030000020002fe
 7d1: fafcff030401fffc0002
 7d2: fbfd00fc0605fffcfefe
 7d3: 0301feff00fcff00fe02
 7d4: 0206fb0000fffcfefbfe
 7d5: fc020100010004fe0001
 7d6: 01ff00fc00fc0100fe02
 7d7: 0506fff9fbfffe06fbfb
 7d8: ff02fb000200fe0000ff
 7d9: f9f9ff04020000fbff03
 7da: fdfd01fe000900f8fbf8
 7db: 0100010000ff01fffd00
 7dc: 0307f90001fefe00fdff
 7dd: fa02010003ff0100fe01
 7de: 000000fd020003feff04
 7df: 070700fbfd00fd04fcfb
 7e0: 0205fbfe02fe000000fc
 7e1: f9fc0003000000fbff03
 7e2: fbfb0201000904f8fff7
 7e3: 000003ff00fd0000ff00
 7e4: 0304fcfe0100fc01fefc
 7e5: fd01000002fd02010002
 7e6: fd0200fdffff02000001
 7e7: 040604fc00fffe00fcff
 7e8: 0202fefd00000000fdfe
 7e9: fafdfe05020002ff0001
 7ea: fcf9ff04ff0805fc03f6
 7eb: fd0003ff03ff0002fe00
 7ec: 0202fcfe0200fe00ff00
 7ed: fd01000100fe01000001
 7ee: f901000002fe03010000
 7ef: ff0306fc00fffe02fafd
 7f0: 04fcfefe0000fe04fefc
 7f1: fcfdff0202fc03000300
 7f2: fbf90004fb0803fd05f8
 7f3: fdff03fd04fd0100feff
 7f4: 0103fc01ff03fc01feff
 7f5: ff00010200fa0001fd01
 7f6: fe01000002f903010000
 7f7: fe0201fe0100fb04fd00
 7f8: 03fefd000000fd0301fd
 7f9: fffc000305fd03fe05fc
 7fa: fbfc0003fc0505fe08f7
 7fb: 000004fd02f8ff010100
 7fc: 0103fcfffe03fd02fd02
 7fd: 00fc020101fc0002ff01
 7fe: ff01020001f902040000
 7ff: 020300fe00ff0000fd01
 800: 0100fd01fb02fc00fefe
 801: fffb00ff06fb010006f8
 802: f8fefe030002010007f7
 803: 000002fd02f8000000fd
 804: 0005fd02ff03fffffd02
 805: 00f9030002fd0101fd01
 806: 010000ff01f800030000
 807: 000103fffffcffff0001
 808: 0400fe01fc02fffffe00
 809: 02fe01ff05fa020304f9
 80a: f6feff01000002ff04f7
 80b: 01ff04fd03fa000100fe
 80c: 0102fc00ff040000fd00
 80d: 01fb000201fb0100feff
 80e: 01fd04fc04f8ff03fc01
 80f: 010202fffffcfe03ff01
 810: 0100fd01fe01fffefd00
 811: 02fc02fe00fc020403f5
 812: f80000000200000003fb
 813: 010006fc02f7fe0100fe
 814: 0202fe01ff000001fc00
 815: 02fb000000fc030000ff
 816: 01fa03fc01f90103ff00
 817: 0000020001f9fe04fd00
 818: 0300fe02fefe000000fd
 819: 00fe04fa02fa000103fa
 81a: f800040002fdfeff01fd
 81b: 01fd05fc03f80001fefe
 81c: 0003feff01000001ff00
 81d: 03fe000000fa0200fffd
 81e: fffa01fd03fa000300ff
 81f: 000003fe00faff02ff00
 820: 0501fe0000fefe00fc00
 821: 03ff04fb01fa000103f9
 822: 00010001fe01ff00fe00
 823: ff01010002000000feff
 824: 0201ff0000ff0300fc00
 825: 05fefdfe01fd03fdfc00
 826: 0001ffff000200000001
 827: fd0401000001ff00ff00
 828: 0200fcfe02fe01feff00
 829: 02fefdfc010000ffff01
 82a: fd000004fe030000fdff
 82b: fe000001ff01ff0001ff
 82c: ff03fe00000102fffc00
 82d: 04fcfefd02fb03fe0000
 82e: 030002fe0100ff00fdff
 82f: ff040102ff02ff02fe00
 830: 01fdfb00010001fd0100
 831: 00fdfdff030000fffdfe
 832: fdfefd05fe04ff00fd01
 833: fe000300ff03fe0301fb
 834: 0002fdfe00020201feff
 835: 03fbfefd01ff01fd0000
 836: 040001ff03fe0002fffe
 837: fe04010100020001fe00
 838: 00fefdff00ff03fdff03
 839: 01fcfefc010200ffff01
 83a: fa00fe07fc0900fffb00
 83b: fd0002010002fe0103fa
 83c: 0100fd0000030000fc02
 83d: 03fdfffd02fd02fe0100
 83e: 04fe02fd00fd000100fd
 83f: fe030000ff03fd03feff
 840: 00fefe00000100fdfd03
 841: fefdfffe020300feff02
 842: fcfcfa07fd0afd00f900
 843: fe0001010001fe0403fa
 844: 00fffd0300030500fa00
 845: 02fe00fe03fb00fe02ff
 846: 01ff00fbffff000102fd
 847: 0002ff00fe02ff03fdff
 848: 00fefa02000203fefd01
 849: fefcfe000104fd00ff00
 84a: fafcfa06fe08fcfff901
 84b: fefe0100fffffe0503fa
 84c: ff02f906fd02fffcfc01
 84d: 01fffffd01ff02000000
 84e: 02ff00fbfefcff0205fc
 84f: 00030000fd01fe07fefd
 850: 00fffb01fd0300fffd01
 851: fdfc01010203f900ff01
 852: fefefb06fe04fcfff801
 853: 00fe03fe0000fe0500fe
 854: fe01f907fb0100040001
 855: 020000fb01fd03fd04fe
 856: 02fb02f800ff000103fc
 857: 0002fefdfafefc0702fe
 858: ff02f607fd0003fd0000
 859: fbfb00020003fafc0001
 85a: 00fcfd080206fafff901
 85b: 00fe00feff00fe030000
 85c: ff04f605fb02ff0000fe
 85d: ff0201fe0000030002fe
 85e: 03fe00f8fefc000302ff
 85f: 0004fefffbfefb0a01fb
 860: ff01f703fb00010000fe
 861: f7ff00030203fdfcff03
 862: fff8fd060504fdfbf703
 863: 010102fb03000003fe00
 864: ff03fb04fd01fffffefe
 865: fd0200fefffe03000300
 866: 05ff03f900fe000000ff
 867: 010300fcfc00fd0afffb
 868: fb03fb00fd0003fd02ff
 869: f8fcff030000fdfb0004
 86a: fffbfd040104fdfcf602
 86b: 010102ff0000fffdfb00
 86c: 0006fa04ff02fffdfdff
 86d: fb0300fe01ff03000000
 86e: fffe03fc00fd01fffe00
 86f: 040801fcfd02ff05fcfd
 870: fc03fc00fe0000fe0000
 871: f8fcff03ff00fefa0004
 872: fffe00010303fffafc00
 873: 00020400fe0000fefa03
 874: 0206fc000002fffffb00
 875: fb0201fe02fd03020000
 876: 000002fd00fe02fdff01
 877: 040802fafd00ff04f9fc
 878: fe05fbfeff0201000000
 879: f9fbff0400fffefc0003
 87a: fdfd0003ff0402f600fc
 87b: 0001020000fcfffffd04
 87c: 0107fafffc00fdfefe00
 87d: fb00020003fd04ff0000
 87e: fd0000fe00ff03fefe01
 87f: 040702fcff00fe03faff
 880: ff03fc00fe000000fe00
 881: fbfd0004000100faff00
 882: fafd0001ff0403f600f5
 883: 0000040000fd00ffff01
 884: 0002ff00fd01fd0100ff
 885: fd00000002fe00000001
 886: fb0100fe00fd03fefe02
 887: 010403fffffffe00f601
 888: 0000fe01fdffff0000ff
 889: f9ff020200ff00fe0100
 88a: fffaff01fc0903fd05f4
 88b: fe03020001000000ff00
 88c: 0002fffefe01ff000002
 88d: fc00000001ffff010001
 88e: fe0000fe00fc0400ff03
 88f: 000204fd0000fe03f900
 890: 00fcfc00fe00000102ff
 891: fd00000100ff03ff03ff
 892: f9feff02fa0304ff05f3
 893: ff00040001fb020000fe
 894: 01020002fc00fcff0000
 895: fffe000001fd00020002
 896: ff0002ff01f905fffd03
 897: 010402fdfffefe01fb00
 898: 01fdfd00fd01ff0003ff
 899: 00fc010002fb04ff03fd
 89a: fbfe0005fe0103ff05f4
 89b: 000105fd03fa0100fffd
 89c: 0203fc00fd05fd000000
 89d: 00fe030100000000ff00
 89e: ff0103fd02fb02020002
 89f: 040201fffffc0200fb00
 8a0: 03fffc03fb01fefd0400
 8a1: 00fe02fe02fc030104fb
 8a2: f6fdff00000400fe05f6
 8a3: 010104fd03fcff01fd00
 8a4: 0202fd00fe00fe00ff01
 8a5: 02f9000003ff000000ff
 8a6: 01fe01fe00fd0002fc02
 8a7: 01030100fefd0001fc00
 8a8: 0202fb00fa02fffd0000
 8a9: 01fd050002fc020401f8
 8aa: f90201020000ffff07fa
 8ab: 000006fd01fb0003fdfc
 8ac: 0006fb00fd0200fffefd
 8ad: 03fbff0000fe0000ff01
 8ae: 00fb00fe02fe0002fc00
 8af: ff0203ff00fe0103fa00
 8b0: 0401fc02fd0400fdfd00
 8b1: 02fb04ff01fb010302f7
 8b2: f80002ff020100ff04fa
 8b3: 02fe04fc00fc0005feff
 8b4: 0204fe01ff0001fffeff
 8b5: 00fd00fe00fc0200fdff
 8b6: 00f901fc01fd0003ffff
 8b7: 010101fe0100ff05fe00
 8b8: 00000000ffff01fdfffe
 8b9: 00fe06f903fa0001fef7
 8ba: f90002fd00feff000000
 8bb: 01ff05fc00fb0102fe00
 8bc: 0006000100010102ff00
 8bd: 04fe02fefffd01fefffe
 8be: 02fd00fb01fb0003fd01
 8bf: 0003000003fe0004fd00
 8c0: 0301fd0000fd0000ffff
 8c1: 010005f800fbff01fdfb
 8c2: 0002010200ff01fefe00
 8c3: ff010300ff0201ff02ff
 8c4: ff02ffff01000200fe01
 8c5: 08fdfeff00ff02fcfeff
 8c6: 000001fdff00ffffff00
 8c7: 000500000001ff01ff01
 8c8: 01fffefe02ff01fefe01
 8c9: 02fdfffd020001fdfa02
 8ca: fd01fe01fe030000fd00
 8cb: fe0201000003ff0000ff
 8cc: 0001ff0101fe0102ff00
 8cd: 06fd02fd00fc01fdff01
 8ce: 010203ff0302ff0000fd
 8cf: ff050000fd000000fafe
 8d0: 00fdfcfe04fc00000003
 8d1: 03fc00ff010002fffc02
 8d2: ff00ff01fc0800fffc00
 8d3: fa0102000002ff0100ff
 8d4: 000200fe00ff0101fc01
 8d5: 04ff00fb01fc01fd0000
 8d6: 030000fd01000000feff
 8d7: fd0500000003ff01fc00
 8d8: 00fefdfc00fe0301ff00
 8d9: 01fbffff03020100fbff
 8da: fafffc04fd08fffff800
 8db: fe000200ff00fd0001fc
 8dc: 0000fd01000001fff902
 8dd: 040000fdfffb04fd01ff
 8de: 030003fb01fd000401fd
 8df: fe040001fe00fe03fcff
 8e0: 01fefcff00fe0200fd01
 8e1: 00f9fefe050100fefb02
 8e2: fefcfd04fc0cfffef800
 8e3: fc0202010000fe0502f8
 8e4: ffff0002ff0207fff800
 8e5: 04ff00fc01fc02fe02fc
 8e6: 02fd01fafffb000403fa
 8e7: ff04fd00ff02ff04fdfc
 8e8: 05fcf900000104fefa01
 8e9: 00fa00010403fe00fc01
 8ea: fbfcfa07fd09fcfdf701
 8eb: fefe01fffe03fe0303fa
 8ec: 0200fb05fe0401fffa01
 8ed: 02ff01ff00fc040000ff
 8ee: 00fe04fb00fbfe0105fa
 8ef: fe0500fefd02fd0700fc
 8f0: 00fff904fe0004fefe00
 8f1: 00faff000201fd00ff00
 8f2: fffbf90afd08fafff901
 8f3: fffe04fefe03fe0203fe
 8f4: 0000fa03fa000000fc00
 8f5: 000001fb03fb030003ff
 8f6: 01fc04fa00fa000206fb
 8f7: 0105fefefe00fd0900fe
 8f8: 0001f703fbfe04ff00fe
 8f9: fdf900010101fdfd0000
 8fa: fff9fb090005fbfbf803
 8fb: 00fc0400fd00fc020000
 8fc: ff03f801fd010000feff
 8fd: 000101fb00fd02000200
 8fe: 01fb03fbffff010203fd
 8ff: 000401fefc01fc0800fb
 900: ff03f900fc00040002fe
 901: fafcff040200fefb0005
 902: fef9fc06ff05fcfcf804
 903: 01000500fc00fe00fd00
 904: ff04fc01fc00ff00fdfd
 905: ff0201fefffd05ff0201
 906: 02fe03fb00fd00fe0400
 907: 010501fdf901fd06fefb
 908: fd02fa00fe00040000fe
 909: f7fc00050103fffaff06
 90a: fefbfd06ff05fdfbf700
 90b: 00ff0400010000fffd02
 90c: ff09fd01ff0200fefcfe
 90d: fd0401ff02fe01ff0102
 90e: 00ff01fd00fd00ff0200
 90f: 010501fdfb03fb04faff
 910: f804fd00fe0204ff00ff
 911: fbfbfe03000000fb0003
 912: 0000ff05000400f6fcff
 913: 0200020000000000fb01
 914: 0004fc00fe03fe00ff00
 915: fd03020000fe02ff00ff
 916: fefe00fc01fb01ff0000
 917: 010800fafe02fc05f9fe
 918: fc01fc00ff0002fe00ff
 919: fcfcff03000101fdfe00
 91a: fdff0001fb0300f702fc
 91b: 0000030001fd00fdfc01
 91c: 0006fb00ff0000fffd00
 91d: fb00020000fd04000000
 91e: ff0103fc00fe04fffd02
 91f: 000600feff02fc00f700
 920: 0000fb01fb0100000002
 921: fdfefe03000000ff0000
 922: fefd0304fa0302f805f4
 923: 0002040001000000fc01
 924: 0106fe00ff00fd00fe01
 925: fdfe010000fe00ffff03
 926: fd0001fdfffb0400fc03
 927: 000503fcffffff03f902
 928: 00fdfefffcfe0001ff01
 929: fdfe030400fe01feff01
 92a: fcfa0206f90205f707f3
 92b: 000100fe00000100fc00
 92c: 0001fefe0000fd000001
 92d: 0000000002ffff000000
 92e: 000001fdffff0200fd06
 92f: 010403fcfffe0002f802
 930: fefefefffd0000000101
 931: ff00020002fe0300ffff
 932: fdfe0202fa0301fa07f2
 933: 020002fd00fc0300fd00
 934: 0101fd00fd00fdfd0000
 935: 00fc0100ffff00000002
 936: 010100ff00fd0300fb01
 937: 0302fefd00fdff03f800
 938: 02fefc00fb00fffe0200
 939: fffe010000fd040001fe
 93a: fcfe0206fc0202fb05f4
 93b: 040201fe01fd0100fe00
 93c: 0103fe00fd01fd0003ff
 93d: 01fc020200000002fd00
 93e: 010000fd00fd0201fe00
 93f: 0203000000fe0100f600
 940: 01fefb00fc00000005fe
 941: 00fd02fe01fc030201f9
 942: fb000500ff0000fc07f7
 943: 07ff02ff00fa0101fe01
 944: 0204ff01ff00fd00ffff
 945: 00fd020001000103ff01
 946: 02fe03ff01fe0103fefe
 947: 04020000fffb0002f9ff
 948: 0500fb01fe00fdfb0200
 949: 02fe05fd00fe000300fa
 94a: f90005ff000000fb00f8
 94b: 02fd04fd02fefe04fefe
 94c: 0002fe01ff06fe00fe00
 94d: 02fc000000000101feff
 94e: 02fc03fc00ff0005f900
 94f: 010000fefeff0003fcfd
 950: 0102fa03fe0000ffff00
 951: 00fc07fa00fd0003fdf9
 952: fa0006ff01ff01fc00fb
 953: 03fe03fb03fcff04fbff
 954: 0001000000000001fd00
 955: 03000300fffd0100ff00
 956: 00fc010003fe0002fa00
 957: 010102fe00fdff03fb01
 958: 0001fc00ff0100fefffe
 959: 03fd08f900f9ff02fef9
 95a: f902070001fdfefd00ff
 95b: 000005fd02fd0201fd00
 95c: fd0400010001ff00fd00
 95d: 040002ff000001fdfefe
 95e: 00ff00fe01fdff03fd00
 95f: 0302fffe03fd0003fdff
 960: 02020000fd00ff00fd00
 961: 030108f901fcff02fdfb
 962: 0003010500fe0000fd00
 963: 0000020300010100fefd
 964: 010200ff01000200ff01
 965: 06fb000000fd03fa01fd
 966: 010000ff000000000000
 967: ff04000200020100fc00
 968: 03fe00fe00ff00fafe00
 969: 00fd0200000001fefe00
 96a: 00010003fe0001fffcff
 96b: 000203030000ff0000fc
 96c: 0002000100000101fc00
 96d: 05fa03ff01f902f901ff
 96e: 04ff01fe0000fe00fdff
 96f: fd030000fe00fe02fd01
 970: 010000fd02fd0000fd00
 971: 02fc0000010001fdfe02
 972: ff00fc03fd04fffbfe00
 973: ff0202050101ff0001ff
 974: 0101fffe00fe0101fe01
 975: 04ff020000fa00fb02fe
 976: 020002ff03fffe0000fd
 977: ff07ff010002ff01fbff
 978: fffefffe000002000001
 979: 01fd00ff020302fffc01
 97a: f9fffd04ff08fefffb01
 97b: fc0100030004fc0200f9
 97c: 0300fe0200fe0001fb00
 97d: 03ff02fe00fa04fc02fe
 97e: 01fd02fe00feff0001fd
 97f: 010301000000fe02fb00
 980: 01fffe0000fe04fd0000
 981: 00fb00fe02ff02fdfb02
 982: fdfffb06fe0800fafc03
 983: fffe0302fe00fc0201fa
 984: 01fe0000fd010201f900
 985: 030002fffdfb03fe04fe
 986: 02fc02fb00fcff0204fd
 987: fe050000fe000004fcfd
 988: 04fffe02ff000500fd00
 989: 00f8ff020302ff00fb00
 98a: fffdfb09fe09fcfbfa03
 98b: fdfe0200fe02fa0300f9
 98c: 0200fe01fc010400faff
 98d: 040004ff00fb050002fd
 98e: 01fe03f902fcfe0307f8
 98f: fe040101ff00fd05fefd
 990: 0400fdfffeff05fffffe
 991: fff90002020000fdfc03
 992: fffbfc0cfb04fef7f900
 993: 00fe0300ff03fa0102fd
 994: 0101fd02fb000100fd00
 995: 000001fb01fb05ff0100
 996: 01fd02fb00f9000009fb
 997: ff0400fffc02fe03fffe
 998: 0100fb00f9ff06000000
 999: fdfa0001020000fdfc01
 99a: 02fafb0cfd05fbfbf803
 99b: 00ff0100fd00fb0002ff
 99c: 0003f901fbff0102fcff
 99d: 000202fb00fd04000301
 99e: 01fd02fc00fd000007fe
 99f: 000304fcfb01fe0403fe
 9a0: fd00fbfcfbfc05000200
 9a1: fefe000200ff00fdfd03
 9a2: 00fbfc05fc05fdf8fb02
 9a3: 000000010003fefb0000
 9a4: fe03ff01fc0300fcffff
 9a5: fe0403fd01fc03ff03ff
 9a6: 00fc03fc00fcffff04ff
 9a7: ff0400fdfb02fe02fffc
 9a8: fc03fbfdfefd07000200
 9a9: fcfd010100ff00fdfe03
 9aa: 00fdfc06fb0400f8fe00
 9ab: 000001000003fcfffc00
 9ac: fe07fb01fe0101fefeff
 9ad: fd0202fe00fd030000fe
 9ae: ff0000f701fa00fe0201
 9af: 000500fdfa00fb04fb00
 9b0: fe03fefefffe03ff01fc
 9b1: fdfd010300ff01fbfe00
 9b2: 0200fc04fb01fef700fd
 9b3: 000402000001ff00fd01
 9b4: fe03fc01ff02fe00ff00
 9b5: fd0101ff0000010000ff
 9b6: 020102fb00fc00000001
 9b7: 0106fffd0203fa03f901
 9b8: fc01fdfffffe020002ff
 9b9: fbfc000301fd02ffff00
 9ba: 01000001fa0103f801f9
 9bb: 020101fffffffe00fcff
 9bc: 0004fafeff01fefffd00
 9bd: fefe0200fffe02000000
 9be: 000001fd02fd00fffd01
 9bf: 000601fdff01fc02f601
 9c0: fd01fafefc00ff000003
 9c1: fd00000200ff03fdfe00
 9c2: fe010203f60101f805f5
 9c3: 000002fc01fe0000fb01
 9c4: 0002fbff0000fdff0000
 9c5: ff00000000ff02ff0101
 9c6: fe0102fe00fb02fffe04
 9c7: 010402fe0001ff05f400
 9c8: fc00fe00fe00ff000104
 9c9: 00ff020300fe03ff00fc
 9ca: fcff0403fa0006f805f4
 9cb: 020001ffffff03fefd03
 9cc: ff03fd00ff00fe02ff01
 9cd: ff00000000fe00feff01
 9ce: ff0000ff00fd0300fe01
 9cf: 0202000000fc0001f702
 9d0: fffefd00ff01ff000001
 9d1: fffe02ff00fd030000fe
 9d2: fcff0700fa0103f904f3
 9d3: 02ff00ff00ff0300fb01
 9d4: ff00fc00fe00ff000000
 9d5: 00fe010101000002ff03
 9d6: 00ff00ff00fc0300fe01
 9d7: 0500fdffff000100f901
 9d8: 00fefbfdff00fefe0400
 9d9: 00fd030000ff0301fffd
 9da: faff0902fb0104f705f5
 9db: 050004ff00fd0000fd00
 9dc: 0003fd00fd00fe0002fd
 9dd: 00fc010000ff02fffe03
 9de: 01ff020002010000fd00
 9df: 04020001feffff00fb02
 9e0: fffdfc00fc0000ff0500
 9e1: 01fb04ff00fd0201fffb
 9e2: fb000c01fefe01f900f6
 9e3: 03ff030003000000fffe
 9e4: ff050001fd01feff0001
 9e5: fffc030000ff00000000
 9e6: 03fc03ff02ff0201fdff
 9e7: 03ff00000000ff04fb00
 9e8: 0300fb00fd00fefd0000
 9e9: 02fc07fd00fc0004fcfa
 9ea: fa020c0000fc00f9fff9
 9eb: 03fe02fe01fe0004fdfd
 9ec: fe040200fe0000000001
 9ed: fffd00ff00000101ff00
 9ee: 02fc020000000004fc02
 9ef: 0200000001fffd02faff
 9f0: fe00fe02fe0100fc01ff
 9f1: 01fd07fb01fc0203fdfa
 9f2: fa01070000fc00fb00ff
 9f3: 02fe04fdfffefe04fc00
 9f4: ff04010000fffd00ff00
 9f5: 04ff0200ff0000feff00
 9f6: 01fcff0001fd0003fe01
 9f7: 040202fe00fdff02f900
 9f8: 00030000ff0100ff0000
 9f9: 03ff06fb00fd0000fcfe
 9fa: fa01080000fc00fbffff
 9fb: 020003fd01fe0000fe00
 9fc: 0002000000000002ffff
 9fd: 05ff05fefaff00fdfdff
 9fe: 04fd000000fe0002fc00
 9ff: 0203feff0200fd01fe00
 a00: 0003000000ff00ff00fe
 a01: 02ff0af800faff02fcfb
 a02: 00010003fffc0001fe01
 a03: 00020102ff00ff00ffff
 a04: 000200fe000100ff0000
 a05: 02fd04ff00fd00f901fe
 a06: 000201000001ff0100ff
 a07: ff0501020000ff00feff
 a08: 02fe01fe000001f900ff
 a09: 02fe00ff000001fb0000
 a0a: 0102fe04fe00fefefafe
 a0b: 000304020000ff00fefe
 a0c: 000200ff00fe00010000
 a0d: 03fd04fe00fd00f9ff00
 a0e: 030002ff0100fefefe00
 a0f: fe03010000020004f800
 a10: 03fefefdffff02fd0100
 a11: 04ffff00010001fd0002
 a12: 0000ff03000100fefbfe
 a13: fc01030000030001fdfb
 a14: 000200fd00fe0102ff02
 a15: 030102fefffefffa02ff
 a16: 0300020000fefefd00fc
 a17: fe020001ff03fe00f9ff
 a18: 00fffffe01fe03fd0300
 a19: 01ff0000000100fefe00
 a1a: 0001fd05fe05fefdfb00
 a1b: fc0103000306fb03ffff
 a1c: 0100ff0000fe01fffe00
 a1d: 030102ff00fb01fc03ff
 a1e: 03fd04fd00fcfdff02fe
 a1f: fe03ff010002fe02fc00
 a20: 02fffffd02fe03fd01ff
 a21: 01fb0000020001feff00
 a22: fefffd05fc08fdfbfb04
 a23: fdff02fe0003fd0500fd
 a24: 01ff00ffff000200ff00
 a25: 020203fe00fc04fc02fc
 a26: 010001fc01fbfc0003ff
 a27: ff04ff010102fc03fafe
 a28: 03fffffefefd04fefe00
 a29: 00fb00fe000001fcfd01
 a2a: 00fcfb06f90afdfafd02
 a2b: fd0100020103fc0000fd
 a2c: 0200fdfffcfe04fffd00
 a2d: 03ff02fe00fd03ff02ff
 a2e: ff0000fa00fbfb0006fb
 a2f: 000200010300fb04fdfd
 a30: 0200fdfefcfc05fe03fe
 a31: 00f90000000002fcfe03
 a32: 00fbfd0af909fcf9fa01
 a33: 000100000003fc0300fe
 a34: 0100fe00fafd0100ffff
 a35: 030004fefefd05ff0500
 a36: ff0004fbfffbfe0007fc
 a37: ff04fdff0001fc04ff00
 a38: 0301fefcf8ff07fc04fd
 a39: feff0001fd0002fd0002
 a3a: 01fefa0af608fff7fd01
 a3b: 00000002fe03fdff0000
 a3c: ff03fcfe00fe0500fefd
 a3d: 000504fb00fd02fe04ff
 a3e: 01fe03fafffbfe030400
 a3f: fd0800000002fc01fefe
 a40: 0101faf9fefd050003fe
 a41: fcfe0101000000fd0004
 a42: 02fdfc08f604fef9feff
 a43: 00000100fd02fffdff03
 a44: ff04fd00fffe0100fdfd
 a45: 000201fb00fe010002ff
 a46: fffd03fbfff9ff0105fe
 a47: ff0700fffd00fd04fafe
 a48: fc00fcf9fffc05fd0501
 a49: fffd000101fe01fc0202
 a4a: 0000fb04f70300faffff
 a4b: 00fe00fffe04ff000000
 a4c: ff07fbfeff01ff00fcfe
 a4d: fe0201fe01fd01000000
 a4e: ff0004fb01faff000102
 a4f: 0005fefefc03fb08f900
 a50: fb03fbfb02fe01ff02fc
 a51: ffff010200fd03fcff01
 a52: 02fffc01f801fffb04fb
 a53: 020002fdfe0000feff00
 a54: ff04fbff00010000ffff
 a55: fe0001fd01ff01ffff01
 a56: 010001fd00fd00000101
 a57: 0008fefd0100fb03fa00
 a58: fc01fafb00fd010004ff
 a59: ff00010100ff02ff0100
 a5a: 010201fff80101fc01f8
 a5b: 010002fcff0000fefe00
 a5c: fd09fbfeff00fc01fd01
 a5d: 01ff000100ff01000000
 a5e: ff0001fe02fd01020001
 a5f: 0004fffd0000fd06f603
 a60: fb03f9fcffffff000203
 a61: 01ff0200ffff03fe00fe
 a62: 000404fcf70302f904f8
 a63: 02000200000001ffff01
 a64: fe03fb000100fd01fd01
 a65: 0000000201ff00fe0101
 a66: 00ff00fd00fc01000002
 a67: 0100ff000200ff02f601
 a68: fa00fafdff01fb000303
 a69: fdfd030200fd02fefffd
 a6a: ff0405fff90000fc04f5
 a6b: 03000000ff0003fefd00
 a6c: fe05fefc0201fc00fe02
 a6d: 00ff0101000000feff01
 a6e: 03fe0000fffe0001fe02
 a6f: 02ff0200ff000002fd00
 a70: fcfffc00fd00fcfe0104
 a71: 02ff0402ff000300fefc
 a72: fd0008fffb0003fa03f5
 a73: 03ff03fffe0001000000
 a74: 0004feff00ffffff0000
 a75: 00fc0003010000fefe00
 a76: 0200000100ff0000ff00
 a77: 01000000fe000200fb01
 a78: fffcfefe0002fc000305
 a79: 00fe0401fdfd0401fffd
 a7a: fd020afffcff00f900f6
 a7b: 02fd02ffff000100feff
 a7c: ff02fd000000ff000102
 a7d: fefc0002010004ffff00
 a7e: 01ff0202ff000000fdff
 a7f: 03010100fe000001fc00
 a80: fe00fb01ff0000ff0200
 a81: 01fe060000ff0001fefe
 a82: fa000efcfe0102f8fffa
 a83: 04fe020000ff0201fdff
 a84: ff01010000000001ff00
 a85: fffd0000fe00020000ff
 a86: 02fc010001000101fdfe
 a87: 02000001fe010004fb00
 a88: fefffeff0000fffd0402
 a89: 02fd07fc00feff02fdfc
 a8a: f9ff0cfdfefe00fcfff9
 a8b: 03fd02000000fe02fbfe
 a8c: fe0401fffe00fd00fd00
 a8d: 02fd01ff00ff01ffff03
 a8e: 01fd0000ff000004fc01
 a8f: 02000100fdfeff04faff
 a90: ff00fd020000fffe01ff
 a91: 010008fc00fe00fffbfc
 a92: f8010cfe00fefffb00ff
 a93: 0400000000ff0101ff00
 a94: 000301fe000000030000
 a95: 010003ff00fe00fc0002
 a96: 00fbfd0000fc0100fdff
 a97: 0102fd0000ff0203fd01
 a98: feff0102fcfefefd00ff
 a99: 03fe05fafffdfffffafc
 a9a: f9010afe00fe00fa00fd
 a9b: 000000fe00fc0000fdfd
 a9c: ff020100000000020000
 a9d: 030008fffd0000fefeff
 a9e: 03ff000200ff02fefd00
 a9f: 0202fe0001ff0101fe00
 aa0: ff000101fe0000ff00ff
 aa1: 02000af900fe00fdfcfe
 aa2: 0101ff0500000001ff00
 aa3: ff02020000010200ffff
 aa4: 000000fcff00000000fe
 aa5: 03000300fefe01f800fd
 aa6: 020002000000ffffffff
 aa7: 0005ff0100010000fe00
 aa8: 02fe02ffff0001f602fe
 aa9: 03ff0100fd0000f9fffe
 aaa: ff020006ff00ff00fdff
 aab: ff01020200020000fbfd
 aac: ff0300fdfeff00fd0000
 aad: 04ff03fffffc01f801fb
 aae: 020005fe0001fffe00ff
 aaf: 0006000100010102fb00
 ab0: 020000fe000000fc03ff
 ab1: 03fe0000000100fa00fe
 ab2: 00010007000300fbfbfd
 ab3: ff0202000007fefefcfc
 ab4: ff0100fcfffe01ff0200
 ab5: 04010100fefe00f903ff
 ab6: 010003fe0200fefd01fc
 ab7: fe040000ff020000fa00
 ab8: 000100fffe0004fb0300
 ab9: 00ff0101000001fa0000
 aba: 0100fd08fd07fdf9f9fd
 abb: fe0102000104ff02fcfd
 abc: 010100fefdff04fe00fd
 abd: 0202010001fe02fc01fd
 abe: feff03fe00fffe0002fd
 abf: ff03fe0000010002f900
 ac0: 000000fbfefe04fc06fc
 ac1: 0200000000ff02fc0200
 ac2: 00fefc05fd08fef8faff
 ac3: ff0101030005fc03fffe
 ac4: 00fe00fe00ff05000101
 ac5: 0401050000ff02fe04fe
 ac6: 000301fc01fbfbff00fe
 ac7: fe03ff010204fb02f900
 ac8: 010000fafdff04fe02fc
 ac9: 02fd0200fe0102fa0200
 aca: 00fefb08fa09fef9fcfe
 acb: 000201040004fc0000ff
 acc: 02fd00fefcff02fe02fe
 acd: 040100fe00ff01ff03ff
 ace: 000102fa0100fdff06fe
 acf: fd07fc010201fb06f800
 ad0: 03fffcfcfdff05ff07fd
 ad1: 00ff0002ffff02fa0001
 ad2: 00fefe07f60900f5fefe
 ad3: fe0100060002fd00fffd
 ad4: 0103fffdfeff03fe01ff
 ad5: 010100ff000005fd0400
 ad6: 000201fd0100fd0004fc
 ad7: fe06fd000000fa02fbff
 ad8: 00fffff8fcfe04fa06fd
 ad9: 01fe0101fe0002fb0101
 ada: 02fdfc09f80900f5fefc
 adb: fe000002fd06fdfffefe
 adc: 0004fbfefffe010001fc
 add: 010201fd01ff02fe01fd
 ade: 00ff01fb0100fc010000
 adf: fd0afffc0102f904fa00
 ae0: 0001fcf600fe07ff04fb
 ae1: 00000001fe0102fd0200
 ae2: 02fcfa09f50600f3fdfd
 ae3: 020001010103fd02fdfd
 ae4: 0005fcfb00fd0401fefd
 ae5: 000100fd01fe02010200
 ae6: fe0002fc01fffd030401
 ae7: ff06fdfdff00fb07f600
 ae8: fd00faf900fb03fe05fc
 ae9: fe000100ff0101fd03fd
 aea: 03fdfa02f80402f5fdfb
 aeb: 02ffff00ff03000100fd
 aec: fb06fbfa00feff00fc00
 aed: fe0100fe00ff02000000
 aee: ff0100fe00fefd0203ff
 aef: ff0700fb0100fc06f401
 af0: fc02fbf903fb04010300
 af1: fffe0200feff04fc02fe
 af2: 0400fd02f60300f604fa
 af3: 01fffe01000300000000
 af4: 0007fdfc00fcfe010000
 af5: 000000ff000002fd0301
 af6: ff00000000fdff020200
 af7: ff05fbfd0000fa07f702
 af8: fb04f9f701fcff000101
 af9: 00000001fd0002fe00fc
 afa: 0300fefef90300f902fa
 afb: 02ffff010001030000ff
 afc: fc07fcfa0300fe02fe01
 afd: ff00000000fd00000101
 afe: 01ff00fc01ff00030000
 aff: 0203fc000001fc02f802
 b00: fc02fbfa03fdfb000302
 b01: 00000102fe0003fd01ff
 b02: 010400fefb0302fa04f9
 b03: 040100fffe00030100ff
 b04: fa05fdfe03fff900fe03
 b05: ff000101000102ff0000
 b06: 0200fe00fffd01ff0000
 b07: 0300fe020000fe01f800
 b08: f902fafc02fcf9ff0003
 b09: 02000102fefe03fb02fd
 b0a: ff030400fa0000fa00f8
 b0b: 0500ff00fdfe04000100
 b0c: fb03ffff05fffa02fd02
 b0d: 0000000200ff02000200
 b0e: 00000001feff0200ff02
 b0f: 0500ff01fd000000fc00
 b10: fa00feff02fefbfe0403
 b11: 00000402feff03fc01fc
 b12: fd0308fffd0001fa02f7
 b13: 03ff0103000005ff0300
 b14: fc0400ff01fdfc00fc04
 b15: 00ff000300010000ff01
 b16: 02ff0003ff000200ff01
 b17: 0200fe02fd00ff00fa00
 b18: f900fe0101fcfcff0003
 b19: 03fe0400fefe01fcfffe
 b1a: fa000cfdfe0000fafff9
 b1b: 03fd0203fd000001fffe
 b1c: fe03fffe00fe00030004
 b1d: fffd0002020003ffff01
 b1e: 02fbff03ff00010000fe
 b1f: 03000302feff0002fb00
 b20: fcff000000fffefe0202
 b21: 00fe06fd000001fefefd
 b22: f8020efbffff00f9fbfa
 b23: 00fb0102ff000000fffd
 b24: 00030100ff0000010000
 b25: 00000000000102ff0001
 b26: 00faff020000030100fe
 b27: 0000ff00ff000101fefe
 b28: fffffd0000fc00000002
 b29: 00fd06fefffe0100fefe
 b2a: f7020dfd00fc00fafbfe
 b2b: 01fe00000000000100fe
 b2c: fe020100ffff0002fd00
 b2d: 01ff010000ff02fb0000
 b2e: 01fdff0200ff02feff00
 b2f: 03010100fe000104fe00
 b30: ff0000ff01ff00ffff00
 b31: 000007fc00fc0000fdfe
 b32: f9020bfe02fdfefafeff
 b33: 01ff0201000103ff00ff
 b34: ff0301ff00000100feff
 b35: 02010301fc0001fafe00
 b36: 01fefe0200ff03fdff00
 b37: 0100fe00ffff030300ff
 b38: fe0102fefffeff000000
 b39: 01fc07fcfffb00fffefe
 b3a: f8010cfd01fcfcfafd00
 b3b: 04000400000001fcfc00
 b3c: ff0400000000ff04ff00
 b3d: 010007fffdfffffbfc00
 b3e: 05fe000200fd02fc00ff
 b3f: 0201fe0200000000fc02
 b40: 0100010000000000fe00
 b41: 030007fcfffcfffdfafe
 b42: 0102fe0300ff0000ff00
 b43: 01030000ff02ff00fb00
 b44: 030201ffff0000fd01fd
 b45: 03fe05fefffffffa00fa
 b46: 0000030000fffffefd01
 b47: ff050000000000020000
 b48: 040102fffe0002f901fc
 b49: 04ff0300fdfe00fafefa
 b4a: 0000000500ff0100fc00
 b4b: 00020202ff02ff01fbff
 b4c: 010302fcfc0100fc01fe
 b4d: 02000300fcfe02fa01fd
 b4e: 00020300fd01fefbfe00
 b4f: fe0501ffff010003ff01
 b50: 020601fefd0000fa03fb
 b51: 03000201fdfe00fb00fd
 b52: ff010006fe0101fefbfe
 b53: fe0202010006fe00fc00
 b54: 000203fd000002ff02fe
 b55: 02020300fdfe00fe00fa
 b56: 010302ff00fffe0000fd
 b57: 00020000ff010002fcfe
 b58: 010400fefeff02fc04fc
 b59: 01000200fd0000f900fc
 b5a: 0000ff08fb06fdfbf9fc
 b5b: ff0100010004fc00fc00
 b5c: ff02ffffff0004fe03ff
 b5d: 03030502ff0003fb05fc
 b5e: 0002030002fffc00fffd
 b5f: ff06000001010004fa00
 b60: ff0105fdfe0004fb05fd
 b61: 01ff0300fd0103f803ff
 b62: 01fefc06fc04fef8f9fc
 b63: 0001ff03ff05fc00fbff
 b64: 030002fffffe03fb00ff
 b65: 03030200fd0004ff03fc
 b66: 000302fcfe00fc00ff00
 b67: fd060000ff01fd04f701
 b68: 010201fdfdff02fa03fa
 b69: 01010101fe0102fd03fe
 b6a: 00fcfe06fa0700f4fefc
 b6b: 000400050007fc00fdff
 b6c: 010001fc000002fb01fc
 b6d: 02020200fcff01ff0000
 b6e: ff0402fcff00fc0203fe
 b6f: fd08fc000202fc06f602
 b70: 02fe00f8fdff04fa07fc
 b71: 02000001000002fb00ff
 b72: 01fefd05f809fef200fc
 b73: 00020007ff05fdfefffd
 b74: 010201fffe0002fd02fd
 b75: 02010000fd0002ff03fd
 b76: fe0202fd0102fc0002fe
 b77: fb0afdff0300fd06f800
 b78: 030000faff0004fb09fa
 b79: 00020200fe0003fc0200
 b7a: 02fbfe05f70600f400fb
 b7b: 000100050009fc01fefe
 b7c: 0001fffb00fe04fe01fd
 b7d: 000000ffffff04fe03fb
 b7e: fe0200fc0000fd0500ff
 b7f: f908fefe0200f904f502
 b80: 0000fef600fe030008fe
 b81: 02000100fc0003fa04fc
 b82: 05fbfc08f60902f200f8
 b83: ff00fe050005fd03fe00
 b84: 0004fcfa01fc05030000
 b85: 010100fe0100020101fe
 b86: 000000fcfd00fb000200
 b87: fb05fdfd0301fb06f301
 b88: fb00fbf903fe030004fd
 b89: 01010001ffff05fa00fd
 b8a: 0400fd03f60500f400f9
 b8b: 0100fd03fe05fd0001fd
 b8c: 0005fcf701fcff02fc00
 b8d: 00000000000002000100
 b8e: 020000fc0200fe000200
 b8f: ff06fd0000fffd04f502
 b90: fb04faf604fa01040000
 b91: 02000002fe0003f900fc
 b92: 0501fb01f70301f705f6
 b93: 0000ff03fd05ff0000fd
 b94: fe07fdfa01fcfd02fe03
 b95: 0000fe0000ff020001ff
 b96: feff00000100000102fd
 b97: 0204fd0002fffb07f602
 b98: fd03f9f604fbfe010003
 b99: 01ff0200ff0004fa02fd
 b9a: 0602fd01fa0102f901f7
 b9b: 0200ff01fd02000100ff
 b9c: fc07fcfa04fbfc02fd02
 b9d: 0000000300ff00ff0200
 b9e: 00ffff00030000000300
 b9f: 0002fd0000ffff03f902
 ba0: fa03fbf705fbfc020203
 ba1: 0300010000fd04f803fd
 ba2: 0101fefffa0001fb00fb
 ba3: 02fefd02ff0204fd02ff
 ba4: fb03fdfd01fbfd00ff03
 ba5: 00000102fe0101010000
 ba6: 00ff0000fffd02000202
 ba7: 0200fe01ff00fdfffeff
 ba8: f701fefc04f9f8000003
 ba9: 0100010000fe06f601fd
 baa: 000503fefc0001fb01ff
 bab: 03ffff05fc0002ff03fd
 bac: fe02fffd04fcfd00fd02
 bad: ffff0001000000fe0002
 bae: 00fe0001fe0000ff0200
 baf: 01000002fe00fe00fe00
 bb0: fa00fcfc03fbf8ff0103
 bb1: 020105fe00fe01f801fc
 bb2: fe0509fbff0101fb00fe
 bb3: 02fefd03ffff030002fd
 bb4: fd0500fe01fcfc03fc04
 bb5: fffe0100000000fe0000
 bb6: 02fdff01fd0002fe02fe
 bb7: 0100ff03fc0000010100
 bb8: f900fefc03fcfb000003
 bb9: 000005ff000004fb01fc
 bba: fb0408fa00fe01fb00fc
 bbb: 02fe00040000010000fb
 bbc: fc0200fe03fefe01fb04
 bbd: 00000301000001fb0001
 bbe: 00fdff03fe0001fe03fe
 bbf: 0300ff02fd00ff0000fd
 bc0: fa0000fe02fcfd000003
 bc1: 0000080001fe06fb00fc
 bc2: fb0409fb02ff01fafafd
 bc3: 02feff02fe02010000fe
 bc4: ff0402fe00fcfe01ff01
 bc5: 00fe0001ff0104fa0000
 bc6: 02fd000100ff030001ff
 bc7: 01ff0001fd020100fefc
 bc8: fc0001fe04fb00fe0001
 bc9: 000007fe04fe03fafefe
 bca: fa030afa04fc00fafb00
 bcb: 01ffff01000000ff00fc
 bcc: ff0302ff01fefe020001
 bcd: 00ff010100fffefa0002
 bce: 01fe0001000102fb00ff
 bcf: 02000000ff0003ff00fd
 bd0: fd0000fe01fd00ff0001
 bd1: 030006ff000001fbfcfd
 bd2: f9000afa04fdfefafb01
 bd3: 02fe0002000003fcfe00
 bd4: 000403fe00ff00020000
 bd5: 00000301ff0001fbfeff
 bd6: 0201fe0300fd05faff00
 bd7: 05000001ffff0300fdfe
 bd8: 000200000200ff000000
 bd9: 010006fe00fd03fafefe
 bda: fa020afc02fdfefbfe00
 bdb: 0300ff03fffe02fefefd
 bdc: 0003000000000102fe01
 bdd: 00000500000000f9ffff
 bde: 02000002fe0002fb01ff
 bdf: 0203fd03fffe0101ffff
 be0: ff02010000fe0100fe00
 be1: 000103fe00ff00fbfefe
 be2: ff02ff0200000201ff00
 be3: 0102000000020000fd00
 be4: 040400fffeff01ff01fc
 be5: 02000301fd0001fcfff7
 be6: 0001020000000000feff
 be7: 000200ffff010001fe00
 be8: 010404fffdfdfffd00fb
 be9: 03000300fefd00fd00f9
 bea: 0004fe0500000100fdfd
 beb: ff04ff0000030002fdfd
 bec: 000502feff01ff0000fd
 bed: 03020400fefe00fd02f8
 bee: 00020202ff0000fffe00
 bef: ff05ff0000000002fe00
 bf0: 030504fffa00fffd02f6
 bf1: 04010200fcfffffd02fa
 bf2: 0100ff05ff0001fdfbfe
 bf3: ff03ff030004ff00fafe
 bf4: 000303fcfd0101fd01fe
 bf5: 02040401fc0100fd00f8
 bf6: 0102020100fdfe01fdff
 bf7: ff05000000020101fc01
 bf8: 000402fefeff02fd03fb
 bf9: 04010200fd0001fdfffb
 bfa: 0000fe04fc0300fcfcfb
 bfb: 000400030001fd01f7ff
 bfc: 010301fefe0203fe01fe
 bfd: 02030302fe0001fd01fc
 bfe: 0005030001fffefffcfd
 bff: ff0400000000ff01fc01
 c00: 000101fdfdff02fd02fb
 c01: 05010100fefffffd02fd
 c02: 0100ff06fd07fdfafaf9
 c03: fe0500060003fd01f7fd
 c04: 000200fffe0102fe00fd
 c05: 03020303fa0100fe01fc
 c06: 0007020000fffd03fdfe
 c07: 0008fefe0200fe04f800
 c08: 000400fffe0003fd03fa
 c09: 01010002fb0002fe01ff
 c0a: 02fefd06fc08fff9fcfa
 c0b: fe0401050004fc02fbfe
 c0c: 000001fefeff04fb00fd
 c0d: 01010202fd00020000f8
 c0e: ff0403fe0000fd03fefd
 c0f: fe07fdfe0000fe05f601
 c10: 000100fcff0001fc04fa
 c11: 03010003fb0202fd02fd
 c12: 03fdfe06fa08fef4fff6
 c13: fe0302050004fc02fafd
 c14: 0003fffd00ff000002fd
 c15: 02030202fc00000002fb
 c16: ff0501ff0000ff05fdff
 c17: fb0afffe03fdfc04f000
 c18: 0002fdfb01ff02fe03fa
 c19: 02000300fe0003fa0400
 c1a: 02fdfe09f70800f6fff6
 c1b: fe0200060105fd04fcfe
 c1c: fe05fffb03fffe0001fd
 c1d: 03010000ff00010003fd
 c1e: 000400fe0000fc04fd00
 c1f: fe09fcff00fffa09f204
 c20: ff03fcf903fd01ff02fc
 c21: 02000201fd0103fa03fc
 c22: 04fffd07f80700f700f6
 c23: 000002030004fc00fefc
 c24: fd03fdf904fefe04fe00
 c25: 010200000000020002fd
 c26: 010101fd00fffc0400ff
 c27: fa08fe0003fffb03f105
 c28: fc01fcf406fe00000300
 c29: 00fe0201fe0005fafffe
 c2a: 06fffa05f80701f701f5
 c2b: 020001050001fcff02ff
 c2c: fe05fcf703fcfe01f903
 c2d: 0000ff0002ff00fe03ff
 c2e: 000000ff0200ff020300
 c2f: ff05fe0000fefd05f503
 c30: f801faf505fbfe04fe01
 c31: 00fd0100fe0103f900fe
 c32: 0400fc04f904fff804f5
 c33: 00fdff050002fd0005fc
 c34: fd08fef804fbff02fb03
 c35: fd01ffff020000000200
 c36: 00fffe000100000003ff
 c37: ff04fdfe0200fb05f7ff
 c38: f703fcf303f8fb05ff07
 c39: 00ff01fefe0004f702fe
 c3a: 0201fc02f90100fb05f6
 c3b: 0100fd05fe0000ff03fd
 c3c: fc07fdf805fbfc00fb01
 c3d: fe01ff00ff00ffff0400
 c3e: ffffff010000fffe0500
 c3f: 0304fcff0000fa04fd01
 c40: f705faf204f7fc010006
 c41: 00000300fe0002f803fd
 c42: 0102fe02fc0003fd02f9
 c43: 0300fc04feff00ff05fa
 c44: fd0600f802fbfb03f903
 c45: ff01ff00000102fe0302
 c46: 00fdff02ffff00ff03fd
 c47: 0100fd020100fd0001ff
 c48: fb04fff607f6f9000003
 c49: 02ff0200ff0004f600fb
 c4a: 0002fffffeff00fa01fd
 c4b: 0300fd05000001fd05fe
 c4c: fc06fffb04fbfc01fc03
 c4d: feff0000010300fd0000
 c4e: 00000002fe00000005fd
 c4f: 0300fc0100ff00000000
 c50: f901fdf706f8f801ff06
 c51: 000104fe00ff05f900fb
 c52: fd0403fa00fc00fc0100
 c53: 04fcfe06feff02ff04fb
 c54: fd03fffb03fcfd03f905
 c55: fe010002020002fc0000
 c56: 00fc0001fd0101ff02fe
 c57: 03fffe00fe01000001ff
 c58: f801fffa07f9fcfffe06
 c59: fe0005ff00fe05f400fb
 c5a: fe0006fc00fc00fcfd00
 c5b: 0201ff01ff0003fc02fc
 c5c: ff01fffb02fdfd02fd03
 c5d: fd000202000001fbfe01
 c5e: 01ffff03000102fd02fc
 c5f: 01000002fe02000000fa
 c60: f9ff02fb04fafd00fd04
 c61: 00000700000005f8fffd
 c62: f90106fb00fe00fcfcff
 c63: 00000003010002fc00f9
 c64: fe0400fe04ff0002fe00
 c65: ff0002000000fffa0001
 c66: 00ffff01ff0003fa00fe
 c67: 01000002fe0102fefefa
 c68: fd0000fc02fdfefffd04
 c69: 0102020002fe03f600fc
 c6a: f90106fb03fefefafd02
 c6b: 0200ff02000203fb02f9
 c6c: fe0401ff00fe0001fe01
 c6d: ffff040200ff00f900ff
 c6e: 03000004000005f700ff
 c6f: 00000001ff0003fffffc
 c70: fd0103fe00fe00fefe00
 c71: 010105ff010001f7fefe
 c72: fa0205fa04fcfffc0000
 c73: 03fe0003010001f901fc
 c74: 0005010001fe0002fd01
 c75: ff020300ff01fff9fd00
 c76: ff000004000000f60000
 c77: 0301fd0201ff03fe00fd
 c78: ff0204ff02ffff00fc01
 c79: 000205ff010000f700fe
 c7a: fe0106fc03fdfefefe01
 c7b: 02000002ffff00f900fd
 c7c: 00050000fe000000fe03
 c7d: fc010600fe0100f9ffff
 c7e: 01020102ff0100f900ff
 c7f: 0304ff0300fd01fdffff
 c80: 0002010001000000fd00
 c81: ff000400000101f9fdfd
 c82: XXXXXXXXXXXXXXXXXXXX
 c83: XXXXXXXXXXXXXXXXXXXX
 c84: XXXXXXXXXXXXXXXXXXXX
 c85: XXXXXXXXXXXXXXXXXXXX
 c86: XXXXXXXXXXXXXXXXXXXX
 c87: XXXXXXXXXXXXXXXXXXXX
 c88: XXXXXXXXXXXXXXXXXXXX
 c89: XXXXXXXXXXXXXXXXXXXX
 c8a: XXXXXXXXXXXXXXXXXXXX
 c8b: XXXXXXXXXXXXXXXXXXXX
 c8c: XXXXXXXXXXXXXXXXXXXX
 c8d: XXXXXXXXXXXXXXXXXXXX
 c8e: XXXXXXXXXXXXXXXXXXXX
 c8f: XXXXXXXXXXXXXXXXXXXX
 c90: XXXXXXXXXXXXXXXXXXXX
 c91: XXXXXXXXXXXXXXXXXXXX
 c92: XXXXXXXXXXXXXXXXXXXX
 c93: XXXXXXXXXXXXXXXXXXXX
 c94: XXXXXXXXXXXXXXXXXXXX
 c95: XXXXXXXXXXXXXXXXXXXX
 c96: XXXXXXXXXXXXXXXXXXXX
 c97: XXXXXXXXXXXXXXXXXXXX
 c98: XXXXXXXXXXXXXXXXXXXX
 c99: XXXXXXXXXXXXXXXXXXXX
 c9a: XXXXXXXXXXXXXXXXXXXX
 c9b: XXXXXXXXXXXXXXXXXXXX
 c9c: XXXXXXXXXXXXXXXXXXXX
 c9d: XXXXXXXXXXXXXXXXXXXX
 c9e: XXXXXXXXXXXXXXXXXXXX
 c9f: XXXXXXXXXXXXXXXXXXXX
 ca0: XXXXXXXXXXXXXXXXXXXX
 ca1: XXXXXXXXXXXXXXXXXXXX
 ca2: XXXXXXXXXXXXXXXXXXXX
 ca3: XXXXXXXXXXXXXXXXXXXX
 ca4: XXXXXXXXXXXXXXXXXXXX
 ca5: XXXXXXXXXXXXXXXXXXXX
 ca6: XXXXXXXXXXXXXXXXXXXX
 ca7: XXXXXXXXXXXXXXXXXXXX
 ca8: XXXXXXXXXXXXXXXXXXXX
 ca9: XXXXXXXXXXXXXXXXXXXX
 caa: XXXXXXXXXXXXXXXXXXXX
 cab: XXXXXXXXXXXXXXXXXXXX
 cac: XXXXXXXXXXXXXXXXXXXX
 cad: XXXXXXXXXXXXXXXXXXXX
 cae: XXXXXXXXXXXXXXXXXXXX
 caf: XXXXXXXXXXXXXXXXXXXX
 cb0: XXXXXXXXXXXXXXXXXXXX
 cb1: XXXXXXXXXXXXXXXXXXXX
 cb2: XXXXXXXXXXXXXXXXXXXX
 cb3: XXXXXXXXXXXXXXXXXXXX
 cb4: XXXXXXXXXXXXXXXXXXXX
 cb5: XXXXXXXXXXXXXXXXXXXX
 cb6: XXXXXXXXXXXXXXXXXXXX
 cb7: XXXXXXXXXXXXXXXXXXXX
 cb8: XXXXXXXXXXXXXXXXXXXX
 cb9: XXXXXXXXXXXXXXXXXXXX
 cba: XXXXXXXXXXXXXXXXXXXX
 cbb: XXXXXXXXXXXXXXXXXXXX
 cbc: XXXXXXXXXXXXXXXXXXXX
 cbd: XXXXXXXXXXXXXXXXXXXX
 cbe: XXXXXXXXXXXXXXXXXXXX
 cbf: XXXXXXXXXXXXXXXXXXXX
 cc0: XXXXXXXXXXXXXXXXXXXX
 cc1: XXXXXXXXXXXXXXXXXXXX
 cc2: XXXXXXXXXXXXXXXXXXXX
 cc3: XXXXXXXXXXXXXXXXXXXX
 cc4: XXXXXXXXXXXXXXXXXXXX
 cc5: XXXXXXXXXXXXXXXXXXXX
 cc6: XXXXXXXXXXXXXXXXXXXX
 cc7: XXXXXXXXXXXXXXXXXXXX
 cc8: XXXXXXXXXXXXXXXXXXXX
 cc9: XXXXXXXXXXXXXXXXXXXX
 cca: XXXXXXXXXXXXXXXXXXXX
 ccb: XXXXXXXXXXXXXXXXXXXX
 ccc: XXXXXXXXXXXXXXXXXXXX
 ccd: XXXXXXXXXXXXXXXXXXXX
 cce: XXXXXXXXXXXXXXXXXXXX
 ccf: XXXXXXXXXXXXXXXXXXXX
 cd0: XXXXXXXXXXXXXXXXXXXX
 cd1: XXXXXXXXXXXXXXXXXXXX
 cd2: XXXXXXXXXXXXXXXXXXXX
 cd3: XXXXXXXXXXXXXXXXXXXX
 cd4: XXXXXXXXXXXXXXXXXXXX
 cd5: XXXXXXXXXXXXXXXXXXXX
 cd6: XXXXXXXXXXXXXXXXXXXX
 cd7: XXXXXXXXXXXXXXXXXXXX
 cd8: XXXXXXXXXXXXXXXXXXXX
 cd9: XXXXXXXXXXXXXXXXXXXX
 cda: XXXXXXXXXXXXXXXXXXXX
 cdb: XXXXXXXXXXXXXXXXXXXX
 cdc: XXXXXXXXXXXXXXXXXXXX
 cdd: XXXXXXXXXXXXXXXXXXXX
 cde: XXXXXXXXXXXXXXXXXXXX
 cdf: XXXXXXXXXXXXXXXXXXXX
 ce0: XXXXXXXXXXXXXXXXXXXX
 ce1: XXXXXXXXXXXXXXXXXXXX
 ce2: XXXXXXXXXXXXXXXXXXXX
 ce3: XXXXXXXXXXXXXXXXXXXX
 ce4: XXXXXXXXXXXXXXXXXXXX
 ce5: XXXXXXXXXXXXXXXXXXXX
 ce6: XXXXXXXXXXXXXXXXXXXX
 ce7: XXXXXXXXXXXXXXXXXXXX
 ce8: XXXXXXXXXXXXXXXXXXXX
 ce9: XXXXXXXXXXXXXXXXXXXX
 cea: XXXXXXXXXXXXXXXXXXXX
 ceb: XXXXXXXXXXXXXXXXXXXX
 cec: XXXXXXXXXXXXXXXXXXXX
 ced: XXXXXXXXXXXXXXXXXXXX
 cee: XXXXXXXXXXXXXXXXXXXX
 cef: XXXXXXXXXXXXXXXXXXXX
 cf0: XXXXXXXXXXXXXXXXXXXX
 cf1: XXXXXXXXXXXXXXXXXXXX
 cf2: XXXXXXXXXXXXXXXXXXXX
 cf3: XXXXXXXXXXXXXXXXXXXX
 cf4: XXXXXXXXXXXXXXXXXXXX
 cf5: XXXXXXXXXXXXXXXXXXXX
 cf6: XXXXXXXXXXXXXXXXXXXX
 cf7: XXXXXXXXXXXXXXXXXXXX
 cf8: XXXXXXXXXXXXXXXXXXXX
 cf9: XXXXXXXXXXXXXXXXXXXX
 cfa: XXXXXXXXXXXXXXXXXXXX
 cfb: XXXXXXXXXXXXXXXXXXXX
 cfc: XXXXXXXXXXXXXXXXXXXX
 cfd: XXXXXXXXXXXXXXXXXXXX
 cfe: XXXXXXXXXXXXXXXXXXXX
 cff: XXXXXXXXXXXXXXXXXXXX
 d00: XXXXXXXXXXXXXXXXXXXX
 d01: XXXXXXXXXXXXXXXXXXXX
 d02: XXXXXXXXXXXXXXXXXXXX
 d03: XXXXXXXXXXXXXXXXXXXX
 d04: XXXXXXXXXXXXXXXXXXXX
 d05: XXXXXXXXXXXXXXXXXXXX
 d06: XXXXXXXXXXXXXXXXXXXX
 d07: XXXXXXXXXXXXXXXXXXXX
 d08: XXXXXXXXXXXXXXXXXXXX
 d09: XXXXXXXXXXXXXXXXXXXX
 d0a: XXXXXXXXXXXXXXXXXXXX
 d0b: XXXXXXXXXXXXXXXXXXXX
 d0c: XXXXXXXXXXXXXXXXXXXX
 d0d: XXXXXXXXXXXXXXXXXXXX
 d0e: XXXXXXXXXXXXXXXXXXXX
 d0f: XXXXXXXXXXXXXXXXXXXX
 d10: XXXXXXXXXXXXXXXXXXXX
 d11: XXXXXXXXXXXXXXXXXXXX
 d12: XXXXXXXXXXXXXXXXXXXX
 d13: XXXXXXXXXXXXXXXXXXXX
 d14: XXXXXXXXXXXXXXXXXXXX
 d15: XXXXXXXXXXXXXXXXXXXX
 d16: XXXXXXXXXXXXXXXXXXXX
 d17: XXXXXXXXXXXXXXXXXXXX
 d18: XXXXXXXXXXXXXXXXXXXX
 d19: XXXXXXXXXXXXXXXXXXXX
 d1a: XXXXXXXXXXXXXXXXXXXX
 d1b: XXXXXXXXXXXXXXXXXXXX
 d1c: XXXXXXXXXXXXXXXXXXXX
 d1d: XXXXXXXXXXXXXXXXXXXX
 d1e: XXXXXXXXXXXXXXXXXXXX
 d1f: XXXXXXXXXXXXXXXXXXXX
 d20: XXXXXXXXXXXXXXXXXXXX
 d21: XXXXXXXXXXXXXXXXXXXX
 d22: XXXXXXXXXXXXXXXXXXXX
 d23: XXXXXXXXXXXXXXXXXXXX
 d24: XXXXXXXXXXXXXXXXXXXX
 d25: XXXXXXXXXXXXXXXXXXXX
 d26: XXXXXXXXXXXXXXXXXXXX
 d27: XXXXXXXXXXXXXXXXXXXX
 d28: XXXXXXXXXXXXXXXXXXXX
 d29: XXXXXXXXXXXXXXXXXXXX
 d2a: XXXXXXXXXXXXXXXXXXXX
 d2b: XXXXXXXXXXXXXXXXXXXX
 d2c: XXXXXXXXXXXXXXXXXXXX
 d2d: XXXXXXXXXXXXXXXXXXXX
 d2e: XXXXXXXXXXXXXXXXXXXX
 d2f: XXXXXXXXXXXXXXXXXXXX
 d30: XXXXXXXXXXXXXXXXXXXX
 d31: XXXXXXXXXXXXXXXXXXXX
 d32: XXXXXXXXXXXXXXXXXXXX
 d33: XXXXXXXXXXXXXXXXXXXX
 d34: XXXXXXXXXXXXXXXXXXXX
 d35: XXXXXXXXXXXXXXXXXXXX
 d36: XXXXXXXXXXXXXXXXXXXX
 d37: XXXXXXXXXXXXXXXXXXXX
 d38: XXXXXXXXXXXXXXXXXXXX
 d39: XXXXXXXXXXXXXXXXXXXX
 d3a: XXXXXXXXXXXXXXXXXXXX
 d3b: XXXXXXXXXXXXXXXXXXXX
 d3c: XXXXXXXXXXXXXXXXXXXX
 d3d: XXXXXXXXXXXXXXXXXXXX
 d3e: XXXXXXXXXXXXXXXXXXXX
 d3f: XXXXXXXXXXXXXXXXXXXX
 d40: XXXXXXXXXXXXXXXXXXXX
 d41: XXXXXXXXXXXXXXXXXXXX
 d42: XXXXXXXXXXXXXXXXXXXX
 d43: XXXXXXXXXXXXXXXXXXXX
 d44: XXXXXXXXXXXXXXXXXXXX
 d45: XXXXXXXXXXXXXXXXXXXX
 d46: XXXXXXXXXXXXXXXXXXXX
 d47: XXXXXXXXXXXXXXXXXXXX
 d48: XXXXXXXXXXXXXXXXXXXX
 d49: XXXXXXXXXXXXXXXXXXXX
 d4a: XXXXXXXXXXXXXXXXXXXX
 d4b: XXXXXXXXXXXXXXXXXXXX
 d4c: XXXXXXXXXXXXXXXXXXXX
 d4d: XXXXXXXXXXXXXXXXXXXX
 d4e: XXXXXXXXXXXXXXXXXXXX
 d4f: XXXXXXXXXXXXXXXXXXXX
 d50: XXXXXXXXXXXXXXXXXXXX
 d51: XXXXXXXXXXXXXXXXXXXX
 d52: XXXXXXXXXXXXXXXXXXXX
 d53: XXXXXXXXXXXXXXXXXXXX
 d54: XXXXXXXXXXXXXXXXXXXX
 d55: XXXXXXXXXXXXXXXXXXXX
 d56: XXXXXXXXXXXXXXXXXXXX
 d57: XXXXXXXXXXXXXXXXXXXX
 d58: XXXXXXXXXXXXXXXXXXXX
 d59: XXXXXXXXXXXXXXXXXXXX
 d5a: XXXXXXXXXXXXXXXXXXXX
 d5b: XXXXXXXXXXXXXXXXXXXX
 d5c: XXXXXXXXXXXXXXXXXXXX
 d5d: XXXXXXXXXXXXXXXXXXXX
 d5e: XXXXXXXXXXXXXXXXXXXX
 d5f: XXXXXXXXXXXXXXXXXXXX
 d60: XXXXXXXXXXXXXXXXXXXX
 d61: XXXXXXXXXXXXXXXXXXXX
 d62: XXXXXXXXXXXXXXXXXXXX
 d63: XXXXXXXXXXXXXXXXXXXX
 d64: XXXXXXXXXXXXXXXXXXXX
 d65: XXXXXXXXXXXXXXXXXXXX
 d66: XXXXXXXXXXXXXXXXXXXX
 d67: XXXXXXXXXXXXXXXXXXXX
 d68: XXXXXXXXXXXXXXXXXXXX
 d69: XXXXXXXXXXXXXXXXXXXX
 d6a: XXXXXXXXXXXXXXXXXXXX
 d6b: XXXXXXXXXXXXXXXXXXXX
 d6c: XXXXXXXXXXXXXXXXXXXX
 d6d: XXXXXXXXXXXXXXXXXXXX
 d6e: XXXXXXXXXXXXXXXXXXXX
 d6f: XXXXXXXXXXXXXXXXXXXX
 d70: XXXXXXXXXXXXXXXXXXXX
 d71: XXXXXXXXXXXXXXXXXXXX
 d72: XXXXXXXXXXXXXXXXXXXX
 d73: XXXXXXXXXXXXXXXXXXXX
 d74: XXXXXXXXXXXXXXXXXXXX
 d75: XXXXXXXXXXXXXXXXXXXX
 d76: XXXXXXXXXXXXXXXXXXXX
 d77: XXXXXXXXXXXXXXXXXXXX
 d78: XXXXXXXXXXXXXXXXXXXX
 d79: XXXXXXXXXXXXXXXXXXXX
 d7a: XXXXXXXXXXXXXXXXXXXX
 d7b: XXXXXXXXXXXXXXXXXXXX
 d7c: XXXXXXXXXXXXXXXXXXXX
 d7d: XXXXXXXXXXXXXXXXXXXX
 d7e: XXXXXXXXXXXXXXXXXXXX
 d7f: XXXXXXXXXXXXXXXXXXXX
 d80: XXXXXXXXXXXXXXXXXXXX
 d81: XXXXXXXXXXXXXXXXXXXX
 d82: XXXXXXXXXXXXXXXXXXXX
 d83: XXXXXXXXXXXXXXXXXXXX
 d84: XXXXXXXXXXXXXXXXXXXX
 d85: XXXXXXXXXXXXXXXXXXXX
 d86: XXXXXXXXXXXXXXXXXXXX
 d87: XXXXXXXXXXXXXXXXXXXX
 d88: XXXXXXXXXXXXXXXXXXXX
 d89: XXXXXXXXXXXXXXXXXXXX
 d8a: XXXXXXXXXXXXXXXXXXXX
 d8b: XXXXXXXXXXXXXXXXXXXX
 d8c: XXXXXXXXXXXXXXXXXXXX
 d8d: XXXXXXXXXXXXXXXXXXXX
 d8e: XXXXXXXXXXXXXXXXXXXX
 d8f: XXXXXXXXXXXXXXXXXXXX
 d90: XXXXXXXXXXXXXXXXXXXX
 d91: XXXXXXXXXXXXXXXXXXXX
 d92: XXXXXXXXXXXXXXXXXXXX
 d93: XXXXXXXXXXXXXXXXXXXX
 d94: XXXXXXXXXXXXXXXXXXXX
 d95: XXXXXXXXXXXXXXXXXXXX
 d96: XXXXXXXXXXXXXXXXXXXX
 d97: XXXXXXXXXXXXXXXXXXXX
 d98: XXXXXXXXXXXXXXXXXXXX
 d99: XXXXXXXXXXXXXXXXXXXX
 d9a: XXXXXXXXXXXXXXXXXXXX
 d9b: XXXXXXXXXXXXXXXXXXXX
 d9c: XXXXXXXXXXXXXXXXXXXX
 d9d: XXXXXXXXXXXXXXXXXXXX
 d9e: XXXXXXXXXXXXXXXXXXXX
 d9f: XXXXXXXXXXXXXXXXXXXX
 da0: XXXXXXXXXXXXXXXXXXXX
 da1: XXXXXXXXXXXXXXXXXXXX
 da2: XXXXXXXXXXXXXXXXXXXX
 da3: XXXXXXXXXXXXXXXXXXXX
 da4: XXXXXXXXXXXXXXXXXXXX
 da5: XXXXXXXXXXXXXXXXXXXX
 da6: XXXXXXXXXXXXXXXXXXXX
 da7: XXXXXXXXXXXXXXXXXXXX
 da8: XXXXXXXXXXXXXXXXXXXX
 da9: XXXXXXXXXXXXXXXXXXXX
 daa: XXXXXXXXXXXXXXXXXXXX
 dab: XXXXXXXXXXXXXXXXXXXX
 dac: XXXXXXXXXXXXXXXXXXXX
 dad: XXXXXXXXXXXXXXXXXXXX
 dae: XXXXXXXXXXXXXXXXXXXX
 daf: XXXXXXXXXXXXXXXXXXXX
 db0: XXXXXXXXXXXXXXXXXXXX
 db1: XXXXXXXXXXXXXXXXXXXX
 db2: XXXXXXXXXXXXXXXXXXXX
 db3: XXXXXXXXXXXXXXXXXXXX
 db4: XXXXXXXXXXXXXXXXXXXX
 db5: XXXXXXXXXXXXXXXXXXXX
 db6: XXXXXXXXXXXXXXXXXXXX
 db7: XXXXXXXXXXXXXXXXXXXX
 db8: XXXXXXXXXXXXXXXXXXXX
 db9: XXXXXXXXXXXXXXXXXXXX
 dba: XXXXXXXXXXXXXXXXXXXX
 dbb: XXXXXXXXXXXXXXXXXXXX
 dbc: XXXXXXXXXXXXXXXXXXXX
 dbd: XXXXXXXXXXXXXXXXXXXX
 dbe: XXXXXXXXXXXXXXXXXXXX
 dbf: XXXXXXXXXXXXXXXXXXXX
 dc0: XXXXXXXXXXXXXXXXXXXX
 dc1: XXXXXXXXXXXXXXXXXXXX
 dc2: XXXXXXXXXXXXXXXXXXXX
 dc3: XXXXXXXXXXXXXXXXXXXX
 dc4: XXXXXXXXXXXXXXXXXXXX
 dc5: XXXXXXXXXXXXXXXXXXXX
 dc6: XXXXXXXXXXXXXXXXXXXX
 dc7: XXXXXXXXXXXXXXXXXXXX
 dc8: XXXXXXXXXXXXXXXXXXXX
 dc9: XXXXXXXXXXXXXXXXXXXX
 dca: XXXXXXXXXXXXXXXXXXXX
 dcb: XXXXXXXXXXXXXXXXXXXX
 dcc: XXXXXXXXXXXXXXXXXXXX
 dcd: XXXXXXXXXXXXXXXXXXXX
 dce: XXXXXXXXXXXXXXXXXXXX
 dcf: XXXXXXXXXXXXXXXXXXXX
 dd0: XXXXXXXXXXXXXXXXXXXX
 dd1: XXXXXXXXXXXXXXXXXXXX
 dd2: XXXXXXXXXXXXXXXXXXXX
 dd3: XXXXXXXXXXXXXXXXXXXX
 dd4: XXXXXXXXXXXXXXXXXXXX
 dd5: XXXXXXXXXXXXXXXXXXXX
 dd6: XXXXXXXXXXXXXXXXXXXX
 dd7: XXXXXXXXXXXXXXXXXXXX
 dd8: XXXXXXXXXXXXXXXXXXXX
 dd9: XXXXXXXXXXXXXXXXXXXX
 dda: XXXXXXXXXXXXXXXXXXXX
 ddb: XXXXXXXXXXXXXXXXXXXX
 ddc: XXXXXXXXXXXXXXXXXXXX
 ddd: XXXXXXXXXXXXXXXXXXXX
 dde: XXXXXXXXXXXXXXXXXXXX
 ddf: XXXXXXXXXXXXXXXXXXXX
 de0: XXXXXXXXXXXXXXXXXXXX
 de1: XXXXXXXXXXXXXXXXXXXX
 de2: XXXXXXXXXXXXXXXXXXXX
 de3: XXXXXXXXXXXXXXXXXXXX
 de4: XXXXXXXXXXXXXXXXXXXX
 de5: XXXXXXXXXXXXXXXXXXXX
 de6: XXXXXXXXXXXXXXXXXXXX
 de7: XXXXXXXXXXXXXXXXXXXX
 de8: XXXXXXXXXXXXXXXXXXXX
 de9: XXXXXXXXXXXXXXXXXXXX
 dea: XXXXXXXXXXXXXXXXXXXX
 deb: XXXXXXXXXXXXXXXXXXXX
